#version: 0.2
e n</w>
e r
e r</w>
c h
e i
u n
e n
s t
a n
d i
s ch
d er</w>
a u
g e
l i
d e
ei n
c h</w>
a l
di e</w>
un d</w>
s i
a r
i n</w>
b e
o r
u r
e l
t e</w>
d en</w>
i n
o n</w>
a t
m i
o n
v er
r i
r e
t en</w>
d a
w i
d e</w>
t i
un g</w>
v on</w>
h r
o l
s t</w>
r a
g en</w>
1 9
s p
e s</w>
n a
i m</w>
z u
r o
s s
de s</w>
b er
b i
f ü
e t
mi t</w>
w a
w ur
t er
d er
ei n</w>
n i
da s</w>
t e
sch en</w>
a n</w>
l e
a m
de m</w>
ein e</w>
al s</w>
r ei
e h
a b
en t
w ei
l a
g en
wur de</w>
i st</w>
t er</w>
z u</w>
au f</w>
n e
g e</w>
c k
li ch
l an
m a
j a
fü r</w>
w e
2 0
u t
g i
el l
a f
o m
a m</w>
e s
at i
z i
r u
ch t</w>
w er
b a
si ch</w>
au s</w>
au s
li e
wa r</w>
ei t</w>
v i
b er</w>
au f
h i
be i</w>
e m</w>
na ch</w>
s e
ä n
sch af
g r
li ch</w>
f a
s o
l o
ein er</w>
au ch</w>
u m</w>
st a
st i
m en</w>
f i
g s
h o
sch e</w>
u l
si e</w>
ri e
h e
st en</w>
d en
b ei
g er
al l
sp i
an n
l ei
d ur
bi s</w>
s s</w>
u m
b en</w>
o r</w>
h n
di es
t ei
wi r
h er
g t</w>
f f
un gen</w>
p ro
ü n
z ei
1 8
sch i
r an
l u
ein en</w>
f or
m e
ja hr
mi t
v or
si n
t a
an n</w>
t s
st ell
k on
zu m</w>
ein em</w>
an d</w>
ö r
et z
b en
m en
m u
o p
h l
20 0
f ol
g er</w>
n o
de ut
dur ch</w>
u r</w>
un ter
k i
wi e</w>
un gs
t z
h a
e l</w>
s a
t o
ch en</w>
20 1
h al
er t</w>
spi el
h r</w>
st e</w>
t ra
ch e</w>
er i
ge s
k a
ge b
h ei
j e
an i
d o
ä r
ü ber</w>
p o
m ar
e m
ch t
m o
st er
ge m
w o
w ar
k om
wer den</w>
r ä
s e</w>
sin d</w>
ü ber
ss en</w>
p f
ni cht</w>
lich en</w>
l e</w>
schaf t</w>
ati on
s on
wir d</w>
f e
an d
g a
zu r</w>
t ä
p p
r ü
fü hr
b ur
ü r
er n</w>
sta d
t en
li n
er te</w>
p ar
b o
d or
f in
p i
c k</w>
k ti
ne u
t s</w>
w ä
un ter</w>
o der</w>
de t</w>
ge h
w el
g ra
sch er</w>
t h
n en</w>
s u
g u
v or</w>
gem ein
te t</w>
wur den</w>
bi l
19 9
i s
ge l
k t
en d</w>
st er</w>
s am
ch te</w>
q u
an der
p l
v o
da ss</w>
u s
w en
m m
i hr
d ar
ge sch
h n</w>
ja hr</w>
m ei
k o
d u
s el
lan d</w>
lich e</w>
a l</w>
g ro
k ö
st ra
un i
er n
k t</w>
na h
n or
s en
ol l
b au
ati on</w>
s ch</w>
p a
or i
g te</w>
l l
h at
s si
z e
k l
z eit</w>
eh r</w>
s o</w>
p er
ä u
m in
s eine</w>
m e</w>
w al
ar bei
t el
en de</w>
t ung</w>
wi e
tei l
h in
0 0</w>
f ran
na ch
s en</w>
be t
ver b
z wei
j o
a r</w>
st eh
u s</w>
ch i
r au
wei ter
lan d
h l</w>
ri t
s k
ber ei
re gi
z wi
19 8
ki r
stad t</w>
ein es</w>
er ung</w>
e t</w>
vo m</w>
s ü
no ch</w>
h an
f t</w>
c o
g lei
de l
er en</w>
19 7
n ur</w>
a b</w>
st u
b ar
gro ß
d re
z we
g an
s eit</w>
s ei
st and</w>
ä l
s ein</w>
h au
s einer</w>
d a</w>
gr ün
fa hr
w or
d ung</w>
so wie</w>
si e
ab er</w>
z a
n ation
19 4
bur g</w>
de s
zwi schen</w>
19 6
sch ul
un d
zei ch
at z</w>
jahr e</w>
r en
hat te</w>
ss e</w>
schi e
dies e</w>
tei l</w>
m on
a li
be g
zwe i</w>
f l
in ter
dies er</w>
s y
k ar
sp ä
c i
g o
er e</w>
b t</w>
h ö
b u
al e</w>
m an
do ch</w>
g s</w>
m et
g ung</w>
ver si
ann t</w>
mi li
s etz
t he
ä ch
ha t</w>
ss en
fi l
ge gen</w>
m an</w>
di en
r in
k an
e x
k rei
war en</w>
t re
ol o
k rie
or t
19 5
ge bi
1 7
lie ß
ö ff
o ber
ein i
19 3
k eit</w>
r at
f en</w>
hau p
in n
t z</w>
f lu
er st
i h
k ur
g lie
te te</w>
he u
wel t
h e</w>
jahr en</w>
ber g</w>
p ri
z en
c a
be k
son der
st e
in g</w>
k e</w>
el t</w>
di n
an ge
h un
st ar
ne t</w>
k en</w>
f an
er sten</w>
aus ge
l än
k e
e ur
b ru
geh ör
ru pp
zu sam
em ber</w>
st at
s ol
tä t</w>
w a</w>
ri ch
h ar
f el
stra ß
l er</w>
wä hr
o f</w>
on i
k en
wo hn
n er</w>
t ur
ge w
on en</w>
po li
z o
re ch
p rä
ab en</w>
er s</w>
der t</w>
g ar
en den</w>
f re
sch ließ
wei se</w>
er fol
t t
f rei
ti g</w>
je doch</w>
b un
ut z
al en</w>
te m
te l</w>
mit tel
st an
n eh
m er
or d
j u
l au
k in
or t</w>
wi l
m er</w>
we st
k la
p hi
f t
k am
ck e</w>
uni versi
sta at
f ra
währ end</w>
k er</w>
k un
mit glie
l etz
m ö
f er
sü d
z ur
jahr hun
v ol
st än
et wa</w>
kon n
be sch
h er</w>
v e</w>
p re
rei ch
stell t</w>
dre i</w>
l ung</w>
en z
n ung</w>
me hr
f all
haup t
ma l</w>
c e</w>
m at
19 2
spä ter</w>
r on
ni e
er ten</w>
m ann
m ann</w>
ö ß
mu si
b li
o k
zei t
f u
gemein de</w>
bei m</w>
wie der</w>
deut sch
f un
j un
kir che</w>
ba hn
ihr e</w>
f rie
e ben
dor t</w>
f f</w>
fa mili
a d
h ol
eh en</w>
dur ch
g rupp
p un
au ß
h aus</w>
stu di
m ehr</w>
t or
b e</w>
zur ü
ar i
st o
st ü
öff ent
g ten</w>
deut schen</w>
n e</w>
steh t</w>
b ri
b l
ell e</w>
gr öß
wi ck
d an
ö l
olo gi
ger i
in i
p u
19 1
ba u</w>
fol gen
ti on</w>
den en</w>
si tz
an t
ze u
schaf ten</w>
ei gen
s einen</w>
all e</w>
k at
m al
s einem</w>
1 6
k te</w>
ges am
heu te</w>
berei ts</w>
m als</w>
de te</w>
k re
ge s</w>
lie gt</w>
s ä
h aus
1 5
k ann</w>
j an
ti gen</w>
st re
g lich</w>
s er
h eit</w>
st ä
z ent
kö ni
pro du
z w
ent wick
se p
führ t</w>
ch en
vi el
z un
rü ck
ges etz
hi elt</w>
ge gen
nah m</w>
w o</w>
hal ten</w>
poli ti
eur op
et er</w>
der n</w>
straß e</w>
m är
dor f</w>
in s
er ste</w>
t u
ma li
b ra
schaf t
f ä
a t</w>
kö n
ri ch</w>
g keit</w>
sch ri
sp ra
f e</w>
en s</w>
kti on</w>
h en</w>
la ge</w>
ge l</w>
be zeich
f rü
am eri
ch er</w>
i s</w>
ih m</w>
t y</w>
pl atz</w>
c ar
w in
h el
k ul
au gu
wir t
v at
f ern
m ü
al l</w>
be sonder
be zi
gebi et</w>
ge schi
konn te</w>
nie der
bun des
wa ss
2 0</w>
kom m
d ann</w>
el e
s -
li n</w>
nor d
k am</w>
mei ster
schul e</w>
0 00</w>
ch ten</w>
k ani
sp e
ho f</w>
bet rie
ri cht
be fin
ho ch
hal b</w>
sel b
i hr</w>
wi ssen
h äl
h aben</w>
a s</w>
ell en</w>
st am
b ü
ein ge
t ro
ver k
m ün
no v
st al
p e
p ol
r ö
spi el</w>
g a</w>
al le
r e</w>
stad t
h in</w>
de ssen</w>
fi zi
le hr
za hl
ch e
st ei
be l
th e</w>
z en</w>
da bei</w>
sch ei
h y
r un
k ri
vi er</w>
ma i</w>
h än
lan g</w>
gr und</w>
jan u
ga b</w>
ok to
men t</w>
el l</w>
h af
janu ar</w>
n at
mär z</w>
glei ch
lich er</w>
gi bt</w>
da mit</w>
k s
ihr er</w>
en g
i l
k u
augu st</w>
mi l
f er</w>
t es</w>
un g
x i
okto ber</w>
us -
b ür
m ä
stän di
eh e
ander en</w>
ge ben</w>
min i
öffent lich
gr und
sch lo
ge le
hn e</w>
rei ch</w>
19 0
m a</w>
i hn</w>
wa s</w>
s st</w>
h ein
st ru
ch s</w>
k a</w>
we ch
sch la
na me</w>
zwei ten</w>
r ol
z ä
si ch
1 5</w>
her r
a pri
er st</w>
sep tem
i schen</w>
j ul
mitglie d</w>
universi tät</w>
li ni
stell ung</w>
septem ber</w>
per son
gr enz
apri l</w>
jun i</w>
fall s</w>
c om
zusam men
de z
ver schie
wer k</w>
1 0</w>
weiter e</w>
ti schen</w>
neh men</w>
sch lu
i .</w>
kön nen</w>
or g
nation al
deutsch land</w>
or en</w>
jul i</w>
ke hr
ni s</w>
er rei
er hielt</w>
j ä
l ä
s atz</w>
c on
na men</w>
is on</w>
g ri
en d
v en</w>
dez ember</w>
ti ge</w>
ba ch</w>
a u</w>
dies em</w>
fü n
l ö
frie d
bei den</w>
ch ri
v e
ne ben</w>
z ö
b re
k ün
ö ster
k ei
k or
fil m</w>
t on</w>
b an
krei s</w>
om men</w>
k ra
hi er</w>
h and
ar b
t -
sa ison</w>
s oll
wen i
nov ember</w>
d at
ck en</w>
ab ge
f ör
o b
di re
auß er
y m
ba r</w>
grupp e</w>
1 8</w>
hl t</w>
f te</w>
t y
geb äu
ges ell
sti mm
18 9
st and
ch ar
w ür
schaf ts
ab e</w>
m or
3 0</w>
si tz</w>
äch st</w>
ar t</w>
v en
wo hl</w>
zun ächst</w>
h am
h en
on s
a i
zusam men</w>
k ol
g -
st ri
so zi
jahrhun dert</w>
re s</w>
z el
0 er</w>
ver öffentlich
tra t</w>
ba hn</w>
s ste</w>
a ch</w>
1 9</w>
le ben
wor den</w>
se l</w>
we gen</w>
han del
si schen</w>
g ent
h ä
kom men</w>
pl at
wie der
in e</w>
. 000</w>
der en</w>
e -
m ut
pu bli
for m</w>
spiel er</w>
1 4
s on</w>
ation en</w>
1 6</w>
in s</w>
sch au
hi l
a kti
s at
v er</w>
ff en</w>
c ol
s ehr</w>
gen er
krie g</w>
z e</w>
f en
s an
b all
mu s</w>
a ch
g ol
a k
zurü ck</w>
te ch
mö g
st ein</w>
fran zö
bek annt</w>
sch wei
ein wohn
v oll
fe bru
g re
gan g</w>
f o
er -
famili e</w>
febru ar</w>
f and</w>
sch ni
ver wen
ge stellt</w>
ameri kani
gesetz t</w>
h u
m el
geschi chte</w>
met er</w>
di es</w>
l auf
wech sel
o s</w>
ter n</w>
ihr en</w>
st en
stat t</w>
v öl
mei ster</w>
eben falls</w>
o f
tra g</w>
t on
1 4</w>
geb au
t t</w>
s or
al b
l ü
sti e
ber lin</w>
t or</w>
le ben</w>
schließ lich</w>
1 2</w>
k eine</w>
ver wal
t ri
la ssen</w>
ch ter</w>
mar i
inter nation
t te</w>
k ten</w>
s al
et t
1 3</w>
ta li
deut sche</w>
ann te</w>
ß en</w>
i mm
li schen</w>
dies es</w>
d ru
ehe mali
18 8
r .</w>
18 7
befin det</w>
hei m</w>
ge grün
1 7</w>
jo h
so hn</w>
den k
all er
vi er
ti tel</w>
t rä
alle m</w>
sei te</w>
mann schaft</w>
eini ge</w>
1 0
m pf
b al
richt ung</w>
p lan
beg ann</w>
berei ch</w>
sp r
pun kt</w>
in gen</w>
la gen</w>
ß i
fl ü
sä tz
ar d</w>
hi st
nach dem</w>
eh e</w>
wa hl
sch on</w>
ck t</w>
sch w
for m
g än
v in
org ani
fl ä
er in</w>
n u
1 3
me di
t ungs
fe st
neu en</w>
sch u
sch ü
l s</w>
gen ommen</w>
kom p
fol ge</w>
k ü
b rü
jahrhun der
bezi r
sy st
fu ß
um s</w>
st ein
1 2
fil m
li ga</w>
for mu
di schen</w>
bür ger
si den
5 0</w>
b and</w>
za hl</w>
ar chi
zw .</w>
b zw.</w>
ö st
g n
d rit
rau m</w>
s eri
z eh
selb st</w>
si on</w>
g ing</w>
l om
sch we
ver tre
g h
stam m
fa ss
arb eit</w>
neu e</w>
sch -
18 6
flu g
ander em</w>
spiel te</w>
be deut
c u
ti g
ä f
be su
k al
d -
po si
person en</w>
din gs</w>
201 0</w>
auf ge
sch ein
ber u
ologi e</w>
gebäu de</w>
wer k
r o</w>
fel d</w>
ge wä
r a</w>
2 5</w>
groß en</w>
o st
schlo ss</w>
führ te</w>
wi ch
o hne</w>
ein zel
wass er
sch en
spiel en</w>
c a</w>
201 1</w>
p rei
stü tz
gehör te</w>
tech ni
l äu
an fan
b ro
t h</w>
t an
aller dings</w>
en en</w>
deut scher</w>
erst mals</w>
ber t</w>
t ran
i tali
1 1</w>
o s
führ ung</w>
rit t</w>
bi sch
formu la
ta g</w>
k op
er schi
p or
formula _
ti ert</w>
gew ann</w>
for sch
stell e</w>
mil li
verb in
200 8</w>
200 9</w>
bezeich net</w>
steh en</w>
z er</w>
sch wer
er rich
b or
stell en</w>
er ungs
e v
k m</w>
nah me</w>
b in
c or
p an
ss e
sch n
gebau t</w>
sp ort
lie ß</w>
wen n</w>
ann ten</w>
fra u</w>
tra gen</w>
ti sche</w>
außer dem</w>
rol le</w>
h or
ent sp
z ü
hist ori
unter nehmen</w>
d rei
ki lom
l a</w>
m m</w>
z er
201 2</w>
la g</w>
p at
völ k
we sten</w>
kre u
ja h
200 7</w>
d s</w>
s om
mög lich
w är
imm er</w>
h ri
k ran
zo g</w>
lan des
c e
sch es</w>
nah men</w>
h ü
jahrhunder ts</w>
f ten</w>
auf grund</w>
bil dung</w>
setz t</w>
b rei
en t</w>
sch o
li ste</w>
de ten</w>
lei st
kl är
gesell schaft</w>
be sitz
fün f</w>
je wei
p ra
l er
201 3</w>
ge or
an der</w>
arbei tete</w>
gehör t</w>
ber g
ur spr
dan ach</w>
f eh
ch tet</w>
fü r
ti on
ta l</w>
sch e
201 4</w>
g ü
hei rat
bil d
p s</w>
groß e</w>
ba y
ver su
ander e</w>
kl ein
fahr en</w>
al t
p en
d on
ver ein</w>
de l</w>
stan den</w>
r än
ne w</w>
ff e</w>
201 5</w>
zu g</w>
zurü ck
schlu ss</w>
200 6</w>
viel e</w>
te ten</w>
n ä
s ehen</w>
zen t</w>
mi e</w>
kei ten</w>
am t</w>
wa hl</w>
k lo
e i</w>
gen d</w>
le b
wa hr
arbei ten</w>
li gen</w>
ti gt</w>
sonder n</w>
m än
b lie
m au
t a</w>
kün st
si ert</w>
n en
c o</w>
bi s
zä hl
glei ch</w>
z .</w>
f ar
o ff
ani schen</w>
nat ur
da zu</w>
f ri
h ör
i i.</w>
w ol
en der</w>
sti tu
un den</w>
besonder e</w>
b ran
g al
e hr
l at
f all</w>
ren n
ka is
gesam t</w>
kt or</w>
l t</w>
zent r
rei che</w>
18 4
ch a
den e</w>
ge wi
krie gs
ins gesamt</w>
in a</w>
ra t</w>
se i</w>
er neu
stre cke</w>
l am
jä hri
a .</w>
mu se
mehr ere</w>
wissen schaft
s eines</w>
b .</w>
t o</w>
par te
te x
ur en</w>
r und</w>
st .</w>
ra h
weiter en</w>
al ter</w>
spiel e</w>
stä d
t al
ver fü
unter schie
ver eini
2 1</w>
rie b</w>
folgen den</w>
f ur
g aben</w>
we g</w>
an schließ
chri st
wa ch
the at
sch war
kul tur
in n</w>
l en
men schen</w>
p au
ation s
a -
zu dem</w>
h äu
sch le
2 4</w>
be steht</w>
dies en</w>
k s</w>
inn er
be l</w>
k el</w>
ver ein
qu ali
f rau
p el
ne te</w>
re m</w>
200 5</w>
kilom eter</w>
vat er</w>
urspr ün
of fizi
s eh
lo s</w>
k ä
wir k
p al
hat ten</w>
re cht
fa ch
m ent
m s</w>
e te</w>
ma cht</w>
studi erte</w>
mei st</w>
re gel
letz ten</w>
gen annt</w>
s ent
ö n
i r
prä siden
2 2</w>
s mus</w>
ih rem</w>
ge t
be völk
vol ks
pro vin
j e</w>
g o</w>
g at
sie d
n ör
v a
wei t</w>
li sche</w>
in di
wei ter</w>
fi r
fe ss
soll te</w>
b le
alb um</w>
201 6</w>
i m
ele kt
st rei
i sti
nör d
unter stütz
stell te</w>
b ung</w>
nu n</w>
mit t
be stimm
re cht</w>
sch rei
g abe</w>
en -
ru m</w>
tz e</w>
rech ts
sam m
t ten</w>
se e</w>
to d</w>
betrie b</w>
d ol
fuß ball
regi on</w>
anfan g</w>
mä ßi
bu ch</w>
rie ben</w>
gesch lo
d ro
be le
an ti
pro je
18 5
ei sen
st ro
schri ft</w>
wer ke</w>
fin an
wil hel
gu t</w>
ken n
gegrün det</w>
sp ro
leben s
in nen</w>
mi schen</w>
gen en</w>
ar ti
flä che</w>
h t</w>
l on
be we
ar ten</w>
n utz
sol l</w>
d d
p la
zi el
lini e</w>
teil ung</w>
erfol g
200 4</w>
2 3</w>
spe zi
k ör
p er</w>
st är
der ung</w>
ber i
kun st
m ati
200 0</w>
tei li
sa ch
an geb
s h
ho f
l auf</w>
ck en
mit te</w>
si l
wo bei</w>
meister schaft</w>
t in
pf ar
regi erung</w>
2 8</w>
k r
tei le</w>
all en</w>
e d
be wer
tä tig</w>
flu ss</w>
pro fess
erfol gte</w>
t lich</w>
hn en</w>
194 5</w>
ein zi
li ter
häl t</w>
p h
stie g</w>
ss el
ni sse</w>
p ort
köni g
fried rich</w>
b r
bil det</w>
vi l
2 6</w>
fa sst</w>
on e</w>
teil t</w>
sat z
v .</w>
sch utz
e ch
krei s
kir chen
1 ,
t ar
es en</w>
mi ssi
al ten</w>
us a</w>
g ei
staat en</w>
kat ho
fe u
pro gra
seri e</w>
r y</w>
we sen</w>
2 7</w>
star b</w>
ti e
sp ar
pre u
w and
g ungen</w>
se chs</w>
musi k
ge stal
m b
köni g</w>
d on</w>
ins besondere</w>
ym pi
wel t</w>
d ra
et z</w>
blie b</w>
fin den</w>
en e</w>
franzö si
entwick lung</w>
mu sste</w>
d om
mo der
joh ann</w>
zo gen</w>
y -
komm t</w>
kur z</w>
gemein den</w>
einwohn er</w>
ä hn
häu fi
setz te</w>
ver kehr
s am</w>
hö he</w>
re publi
anschließ end</w>
ba si
e li
wechsel te</w>
ss er</w>
an stal
ll en</w>
ol ympi
hin ter
wel che</w>
d au
gewä hlt</w>
f lo
k auf
co un
t ür
ne u</w>
kla ssi
vi erte</w>
t au
jewei ls</w>
al ter
über nahm</w>
w u
er öff
errei chte</w>
gen d
musi k</w>
europ ä
bur ger</w>
la ger
y or
bu ch
r hein
er halten</w>
verwen det</w>
ss a
fran krei
in er</w>
p rin
o gra
dat en</w>
ab hän
2 9</w>
wil li
er wä
wi en</w>
d t</w>
hi er
famili en
zei gt</w>
d ri
be teili
l en</w>
e g
fahr zeu
201 7</w>
t om
beg ri
ste u
k el
pro zent</w>
rei chen</w>
a c
rei he</w>
200 3</w>
rei chi
lin g</w>
us- amerikani
sti schen</w>
ge führt</w>
öst lich</w>
in du
haus en</w>
l ungen</w>
öster reichi
inner halb</w>
t at
lu ft
dar auf</w>
u .</w>
3 1</w>
s er</w>
zi ert</w>
ma ß
kri ti
g la
200 1</w>
dien st</w>
west lich</w>
setz ung</w>
u te</w>
hn t</w>
hl e</w>
s weise</w>
si ehe</w>
in stitu
kla sse</w>
gi e
wirt schaft
fe sti
ja p
ti erte</w>
abhän gi
ab sol
d ungen</w>
verschie denen</w>
t ru
vor sitz
nor den</w>
bil d</w>
beg inn</w>
spiel t</w>
is ch</w>
p p</w>
ka de
t ur</w>
200 2</w>
besonder s</w>
w ett
b la
fa st</w>
ent stand</w>
o ft</w>
ri cht</w>
f äl
be stand</w>
utz t</w>
bei de</w>
ru ssi
run de</w>
to chter</w>
ter i
organi s
lan g
rah men</w>
en er</w>
arbei ts
archi te
d o</w>
verk auf
b s
zeich net</w>
ch ts
kin der</w>
bisch of</w>
folgen der</w>
gi lt</w>
än de</w>
ti gkeit</w>
ver trag</w>
d op
hö ch
hä us
z y
sch ä
entwick el
ü b
hei ten</w>
staat s
g l
en z</w>
en i
ein satz</w>
ständi g</w>
spra che</w>
f la
bezi eh
lan ge</w>
da von</w>
ter en</w>
li gi
s ho
p et
st au
o li
an t</w>
b on
p eri
d wi
ein ander</w>
ma sch
st or
erschi en</w>
hal t</w>
wal d</w>
da her</w>
ber lin
schri ft
da mals</w>
gemein de
z erst
z t</w>
w oll
regi on
errich tet</w>
t ungen</w>
wass er</w>
o t
stru kt
ni schen</w>
4 0</w>
de u
ss es</w>
wa gen</w>
18 0
kar l</w>
ei gent
pp en</w>
parte i</w>
ga r</w>
mün chen</w>
universi ty</w>
de ck
kar ri
wei l</w>
ar me
ch es</w>
zent rum</w>
e u
ka p
hei ts
sü den</w>
ster n</w>
zei tig</w>
erneu t</w>
al so</w>
konn ten</w>
fin ale</w>
zwei te</w>
gen den</w>
frankrei ch</w>
ut z</w>
prei s</w>
provin z</w>
pf lan
ra cht</w>
f al
or ts
ei g
n er
b ö
z es
bei spiel</w>
ra di
for t
we hr
t in</w>
ein gesetzt</w>
et te</w>
zeh n</w>
lie gen</w>
bevölk erung</w>
o sten</w>
g lo
mini st
t ritt</w>
k er
syst em</w>
welt krieg</w>
d ä
et t</w>
t ho
le gt</w>
bezir k</w>
y s</w>
si cht
eigen en</w>
e ten</w>
v ari
zahl reiche</w>
ell er</w>
so wohl</w>
o t</w>
jah res</w>
s a</w>
b at
milli onen</w>
star k</w>
1 00</w>
wilhel m</w>
bahn hof</w>
ni en</w>
k um
p f</w>
d i</w>
a cht</w>
j ur
geh t</w>
at ur</w>
führ en</w>
verb rei
199 9</w>
te am</w>
si cht</w>
muse um</w>
zerst ör
geschlo ssen</w>
jo hn</w>
k m
f s
lie f
par k</w>
ka pi
er klär
b rin
lei tung</w>
ge fä
fin det</w>
ben annt</w>
18 3
fi g
t är
k o</w>
franzö sischen</w>
gen e</w>
ar e</w>
zu ge
ent schei
hein rich</w>
gi schen</w>
men s</w>
bei spiel
gegen über</w>
ati ve</w>
ori e</w>
zi g</w>
öster reich</w>
k rä
fol gte</w>
de mo
s la
ben en</w>
studi um</w>
dar unter</w>
gemein sam</w>
handel t</w>
stell er</w>
mitglie der</w>
di sche</w>
pfar r
ss o
inn en
f ei
karri ere</w>
yor k</w>
ord nung</w>
on s</w>
ze p
entsp rech
t rupp
hei m
tra di
dre h
in sel</w>
zu sätz
g rie
ka li
fa ch</w>
mar k</w>
ti er
sch rieb</w>
dien st
grenz e</w>
c an
ab ri
lu dwi
199 0</w>
fran k
p hy
land kreis</w>
p eter</w>
präsiden t</w>
heu tigen</w>
unter su
profess or</w>
lei ter</w>
verwal tungs
au stra
w an
samm lung</w>
sti f
al o
s hi
ren nen</w>
f ung</w>
ju gend
ni cht
s ung</w>
a de</w>
wirt schaft</w>
beispiel sweise</w>
kö l
e di
ev ange
verschie dene</w>
g in
ehemali gen</w>
grupp en</w>
me da
c am
kä mpf
mu ss</w>
er z
ent fern
hal b
so gen
at en</w>
a te</w>
wei ß
zu vor</w>
en dete</w>
so w
sp ani
199 8</w>
ca .</w>
in e
p en</w>
op er
ma s</w>
j a</w>
li en</w>
fern seh
schi ff</w>
o l</w>
f c</w>
s äch
ant wor
v al
sk i</w>
au to
republi k</w>
st ens</w>
ck er</w>
r oll
sch utz</w>
t her
for der
g ö
sta at</w>
be din
h abe</w>
ta ge</w>
t ter</w>
ort stei
syst em
s ar
par is</w>
verb and</w>
unterschie d
6 0</w>
m men</w>
dar über</w>
em pf
tre ten</w>
mut ter</w>
, 5</w>
l es</w>
tei di
schni tt</w>
ursprün glich</w>
glei chen</w>
am ts
f le
ver teidi
d y
so mit</w>
mu s
pau l</w>
s au
frau en</w>
ti onen</w>
sel ben</w>
i ert</w>
stat t
z war</w>
lan gen</w>
sch wi
n äch
wi der
a g
si g
teil weise</w>
äu ß
folgen de</w>
wirt schafts
har d</w>
bedeut ung</w>
ne ten</w>
n a</w>
grün dete</w>
k ro
nach fol
geh en</w>
geh ö
gen de</w>
bi li
en er
d ungs
län ge</w>
sie ben</w>
le a
veröffentlich t</w>
straß en
y o
w ander
bezeich nung</w>
ga st
ran g</w>
phi e</w>
lä sst</w>
mö glich</w>
setz en</w>
b rau
di vi
fel d
da mali
hil fe</w>
a kade
t hi
reich s
mat eri
tz en</w>
gehör en</w>
er war
to ur
er weiter
uni on</w>
li g</w>
mo del
pf lich
än der
fur t</w>
häufi g</w>
ne ben
geri cht</w>
199 4</w>
europ a</w>
medi z
bur g
b ron
an lage</w>
kti onen</w>
ver anstal
sy n
s ul
verk ehr</w>
199 6</w>
sich er
g rei
frü h
st af
j ü
s h</w>
posi tion</w>
arme e</w>
aus bildung</w>
pro ble
p op
ma chte</w>
kl einen</w>
si erung</w>
eri schen</w>
ch s
199 7</w>
al ex
c lu
al -
p ha
mei sten</w>
199 2</w>
17 9
ber ger</w>
ch er
qu i
arbei ter</w>
ges ehen</w>
geb oren</w>
i hnen</w>
be ss
m ani
lo u
ck e
b lei
fan den</w>
dar auf
sozi ali
lich es</w>
g ungs
han s</w>
m -
kam en</w>
gesam t
mäßi g</w>
gesch äf
g ym
stü ck</w>
kl eine</w>
mo tor
besu chte</w>
g ut
krie ges</w>
arbei tet</w>
wer t</w>
gesch o
all gem
häl t
gener al
sei ts</w>
besch äf
er geb
gesch ä
ma g
0 0
all er</w>
lo so
for t</w>
z -
l ungs
v a</w>
grün dung</w>
mar k
199 5</w>
b lo
fä hi
verbin dung</w>
dru ck</w>
produ ktion</w>
le gi
an g</w>
internation alen</w>
be sitz</w>
sa in
b s</w>
wett bewer
mini ster</w>
i de
199 1</w>
da für</w>
selb st
ver t
gym na
eini gen</w>
et s</w>
at h
ti gte</w>
8 0</w>
par t
ver fahren</w>
hin ter</w>
dire kt</w>
be st
fi k
c al
er ster</w>
ge lang</w>
gehö ri
zeh n
fahr t</w>
t ö
et was</w>
p sy
ra d
pri vat
s ki
mi cha
i sche</w>
eigen e</w>
ver hält
k lu
no t
eben so</w>
ter e</w>
hin aus</w>
geh end</w>
vol u
n ungen</w>
ati v</w>
sozi al
bek ann
r el
verwal tung</w>
d u</w>
pp e</w>
zi el</w>
lon don</w>
kreu z
l ar
a bi
lich keit</w>
er ei</w>
geb racht</w>
gen utzt</w>
m y
letz te</w>
d un
ber ü
men te</w>
sp rin
wei sen</w>
gel ö
k i</w>
bl ü
erfol g</w>
land s</w>
st ur
befin den</w>
bru der</w>
p e</w>
199 3</w>
d ür
s .</w>
kir ch
schi ff
p -
sti l</w>
u ten</w>
zun eh
f el</w>
er bau
führ er</w>
phi loso
d ent
zi eh
minist eri
som mer</w>
klo ster</w>
k ein</w>
mi sche</w>
fass ung</w>
unter neh
in form
min de
kur z
gymna si
da r</w>
auß en
weiter hin</w>
f li
n um
herr schaft</w>
ba d</w>
un abhängi
le gte</w>
j am
zei chen</w>
u -
par lam
vereini gten</w>
gi e</w>
kan a
sp er
o -
ver heirat
l or
da durch</w>
p ro</w>
bl ä
teil en</w>
nä he</w>
198 9</w>
ent standen</w>
mm t</w>
par tei
bru ch</w>
wal d
m ol
internation al</w>
k -
ob wohl</w>
gu e</w>
ehr en
ber n
meister schaften</w>
le y</w>
sti sche</w>
ri schen</w>
er he
ll er</w>
coun ty</w>
b run
gele gt</w>
war d</w>
p rü
ger ä
ger n</w>
un gar
k na
brü cke</w>
deut lich</w>
schri ften</w>
s än
a d</w>
ch ter
viel en</w>
errei cht</w>
tä ten</w>
l y
för mi
v an
a g</w>
h om
lan des</w>
j ün
fa sste</w>
sa i
s an</w>
hl en</w>
sied lung</w>
re ligi
kin der
inter e
sp or
ll a</w>
geschäf ts
s ur
i i</w>
in en</w>
sie g</w>
de ckt</w>
r und
dru ck
han g</w>
süd lich</w>
hol z
o u
ta r</w>
i ch</w>
m ern</w>
d .</w>
ver sch
mari a</w>
abge ord
d é
ban k</w>
le ge</w>
de m
we sent
le gen</w>
missi on</w>
er s
fir ma</w>
kon stru
hei mat
phi li
en ten</w>
joh ann
h ann
kehr te</w>
k au
wie gend</w>
0 ,
da vi
auf genommen</w>
wissen schaften</w>
de bü
drit ten</w>
y p
tur ni
b all</w>
gleich zeitig</w>
si erte</w>
begri ff</w>
le di
stell ungen</w>
p ä
t ter
t sche
p el</w>
pro mo
ham burg</w>
lei p
a si
ob je
v al</w>
politi ker</w>
su b
kti ons
kon z
bi bli
är e</w>
zä hlt</w>
phy si
zei ten</w>
c ro
k li
er ungen</w>
män n
do sten</w>
bl at
veröffentlich te</w>
er d
di s
al te</w>
schi l
la r</w>
per s
ni e</w>
nörd lich</w>
o ti
kun st</w>
char ak
do kum
letz t</w>
sie del
il le</w>
f ron
f abri
fun den</w>
europä ischen</w>
dien te</w>
an gri
mili tär
theat er</w>
for men</w>
sp ort</w>
s and
tt o</w>
c ent
7 0</w>
dor f
geor g</w>
in g
te sten</w>
hal ten
be wohn
er k
w inter
län ger
n om
off en
stamm t</w>
größ te</w>
z z
fran z</w>
weni ger</w>
t ten
te m</w>
bet rä
mit tel</w>
darauf hin</w>
193 3</w>
c -
st r
197 2</w>
gen i
leb te</w>
bal d</w>
vorsitz ender</w>
fe st</w>
berlin er</w>
dop pel
k no
met ern</w>
bewe gung</w>
r h
forsch ung</w>
haf en</w>
versi on</w>
jä hr
indu stri
erwä hnt</w>
m eri
ex isti
bra un
w un
sp ei
um e</w>
kam pf</w>
po st
par ti
y er</w>
tur m</w>
mehr eren</w>
sti an</w>
tra iner</w>
an a</w>
er schein
b -
ster s</w>
se e
flug zeu
ch r.</w>
dire ktor</w>
micha el</w>
häus er</w>
ran d</w>
olympi schen</w>
pl ä
a kt
m es</w>
lin gen</w>
ma i
kra ft
kr ati
se x
gan z</w>
s lo
hoch schule</w>
absol vierte</w>
g lichen</w>
sy m
pers ön
mili tä
e ben</w>
vor han
finan zi
lehr er</w>
schau spiel
komm uni
lie f</w>
entwickel te</w>
ho hen</w>
ma xi
c re
na mi
fol gt</w>
wei t
trupp en</w>
besch rei
o the
einwohn ern</w>
2 ,
20 0</w>
mi ss
nation al</w>
größ ten</w>
ut t
or te</w>
mar kt</w>
al y
198 8</w>
sch a
af ri
v an</w>
k ür
ll t</w>
d s
sin g
be tra
ti eren</w>
kir chen</w>
gesch ü
ru ss
pun kte</w>
nach bar
ern annt</w>
197 0</w>
o b</w>
fun ktion</w>
t r
kap elle</w>
nachfol ger</w>
bun de
a s
er ziel
ge wesen</w>
vertre ter</w>
ver antwor
198 7</w>
sch mi
ni mmt</w>
st ation</w>
kran k
ut h</w>
t lichen</w>
er er</w>
198 0</w>
häl fte</w>
gebi r
ab teilung</w>
ben e</w>
denk mal
m ein
er weise</w>
weni g</w>
jähri gen</w>
w ein
ludwi g</w>
5 00</w>
en ga
v el
verheirat et</w>
lo r</w>
organis ation</w>
es si
sp rech
wel ches</w>
jo sep
jo ur
b lu
ck s</w>
pro fi
politi schen</w>
bo o
b ul
bo t
tho mas</w>
sp ru
pf er
197 4</w>
en s
ss el</w>
o w</w>
ges etz</w>
schul en</w>
sch ö
h alle</w>
" -
geri chts
ti ger</w>
entwick elt</w>
kör per
nah e</w>
and re
er b
ba ch
meda ille</w>
haus es</w>
dien t</w>
tro tz</w>
w e</w>
b y
ss ung</w>
h and</w>
ti k</w>
au tom
schwei z</w>
ver mut
gra f</w>
künst l
läu ft</w>
her en</w>
vi ert</w>
ei ster
193 9</w>
s zen
bri tischen</w>
198 6</w>
ledi glich</w>
h um
her i
familien name</w>
kon t
schie d</w>
zei tung</w>
0 .000</w>
um fasst</w>
bra chte</w>
gelö st</w>
el n</w>
sp rä
b a</w>
lei tet</w>
es e</w>
haupt stadt</w>
kan di
th er</w>
ti tel
französi sche</w>
untersu ch
193 8</w>
d r
kun ft</w>
un de</w>
ro bert</w>
bau ten</w>
ck i
ro man
sto ff
cu p</w>
ur i
198 5</w>
m ul
ein mal</w>
198 4</w>
197 5</w>
be glei
spra ch
so gar</w>
ih res</w>
rat en</w>
ger s</w>
jah re
lau t</w>
g lau
her zo
ß t</w>
be steh
for d</w>
t ha
gemein schaft</w>
führ ten</w>
’ s</w>
ti sch</w>
bis her</w>
pp en
be vor</w>
feh l
c .</w>
au tor
194 4</w>
s um
lö sung</w>
j en
eng land</w>
hand lung</w>
ori gin
gü l
gesch le
mar kt
gemein sam
1 .
wahr schein
ol d</w>
geb ur
ma chen</w>
heirat ete</w>
be o
196 8</w>
itali en</w>
sain t-
m ale</w>
sta di
f ließ
dre s
bar en</w>
0 -
demo krati
re chte</w>
sp ann
fi el
ortstei l</w>
be fand</w>
n etz
196 9</w>
g am
ri sche</w>
zusätz lich</w>
zi erte</w>
ge geben</w>
197 8</w>
ch am
fol gen</w>
schla cht</w>
ver li
kom men
met ho
ologi schen</w>
institu t</w>
on nen</w>
lin e</w>
ehemali ge</w>
jour na
lie b
tä ts
en te</w>
politi k</w>
ge fan
ci ty</w>
sal z
schwei zer</w>
divi sion</w>
damali gen</w>
den -
errei chen</w>
17 8
kais er</w>
197 1</w>
e d</w>
d ü
haup ts
ab schluss</w>
e pi
f än
schaf fen</w>
wahl en</w>
fi el</w>
197 3</w>
h m
ma t</w>
ma r</w>
stän de</w>
b rie
lea gue</w>
198 3</w>
einzi ge</w>
besitz t</w>
n et
h .</w>
bi et
am s</w>
h a</w>
3 5</w>
hr en</w>
verkehr s
zentr al
spi e
l -
geri chtet</w>
gra b
be hör
ur e</w>
197 6</w>
198 2</w>
wal t</w>
t op
regi erungs
g ru
pa p
w n</w>
197 9</w>
194 6</w>
gol d
mar tin</w>
rück en</w>
s dorf</w>
eur o</w>
da m</w>
196 0</w>
bürger meister</w>
a st
wi esen</w>
ro m</w>
unter schei
ar en</w>
beträ gt</w>
kan ton</w>
kon gre
welt meisterschaft</w>
er hö
un mittel
akade mie</w>
le bt</w>
a ssi
c al</w>
komm un
zeit schrift</w>
gebi ete</w>
t liche</w>
el ten</w>
ord net</w>
re gel</w>
geb ung</w>
bet ru
är en</w>
f ein
wür de</w>
bibli othe
her aus
schw an
w s</w>
sti mmen</w>
sta g</w>
l ern
ma in
köl n</w>
in ger</w>
wissen schaft</w>
on -
ber ech
ti gung</w>
go tt
ver ur
län der</w>
deut sch</w>
c an</w>
me l</w>
fra ge</w>
gat tung</w>
/ 0
x -
frei en</w>
p ho
ho he</w>
wei st</w>
wa ff
di sk
r oni
kra ft</w>
proje kt</w>
leist ung</w>
bi r
er inn
johann es</w>
amerikani schen</w>
b and
kt or
des halb</w>
bar e</w>
eisen bahn
progra mm</w>
weni ge</w>
vi de
o d</w>
er seits</w>
wei b
ent s</w>
g keiten</w>
bay ern</w>
stell ten</w>
ni sche</w>
198 1</w>
bil den</w>
in sel
basi s</w>
di g</w>
195 0</w>
al e
an zu
t .</w>
h on
te ste</w>
9 0</w>
la ger</w>
g mb
kais er
spra chi
eh er</w>
frank furt</w>
spä teren</w>
u ver
man a
län dern</w>
größ e</w>
s ha
re prä
politi sche</w>
zu ge</w>
f -
mü ssen</w>
bet re
c s</w>
frü hen</w>
techni k</w>
an s</w>
j uni
ern st</w>
kul tur</w>
eng li
eri e</w>
au tor</w>
ti scher</w>
gra fen</w>
der s</w>
hn ung</w>
ent hält</w>
her ausge
wich tig
spi tz
verb unden</w>
schni tt
vermut lich</w>
sei ten
w er</w>
gem ä
kon zep
akt u
ty pi
gymnasi um</w>
ge prä
g t
e st
kat eg
196 7</w>
zw öl
t hr
in stru
fo to
ni s
ani sche</w>
in ten
gra fi
o tto</w>
st et</w>
josep h</w>
196 4</w>
ein zu
tä tigkeit</w>
197 7</w>
c at
hi r
car l</w>
li ga
wä l
liter atur</w>
ken nen</w>
zwi schen
re volu
ein flu
bi st
y a</w>
frü her</w>
ti ere</w>
k und
ständi ge</w>
g h</w>
rä u
psy ch
trä ge</w>
si s</w>
österreichi schen</w>
för der
cht ung</w>
o d
e f
en det</w>
fried hof</w>
region al
je der</w>
zü ge</w>
ar ch
fer tig
sei ten</w>
sch t</w>
j i
um fan
schla g</w>
wa y</w>
n ommen</w>
dan eben</w>
ati ven</w>
zu letzt</w>
sti k</w>
zahl en</w>
k ern</w>
di gt</w>
beo ba
b us
mann schaften</w>
vil le</w>
vi el</w>
kei ts
wu chs</w>
fall en</w>
gra d</w>
sch lä
an g
196 5</w>
an lagen</w>
sil ber
ki schen</w>
haupts äch
m c
beg inn
kam er
hl en
kran ken
k ron
at ur
gener al</w>
di e
hann o
s hin
s ö
li ge</w>
grün den</w>
o i
hal tung</w>
a p
national soziali
196 6</w>
ini ert</w>
mal er</w>
ter s</w>
gefä hr
national mannschaft</w>
s ka
einzel nen</w>
ver sor
entfern t</w>
ge plan
t tem
in te
leip zig</w>
4 5</w>
her vor
grie chi
b y</w>
den n</w>
stä tte</w>
gi erte</w>
196 1</w>
ini ti
c m</w>
qu e</w>
g on
öffent lichen</w>
wür ttem
wi ener</w>
an wen
v -
li ert</w>
g ton</w>
b rit
z el</w>
ch tete</w>
se el
ho ben</w>
an ten</w>
kon ta
an teil</w>
ko sten</w>
pol en</w>
kani schen</w>
sch wa
194 0</w>
kü ste</w>
ung sp
195 6</w>
ausge zeichnet</w>
mat he
n ü
we der</w>
mo tor</w>
forsch ungs
go t
196 3</w>
pre mi
196 2</w>
kam pf
gebi et
ar n
lie d</w>
w at
hei ligen</w>
men s
gel ände</w>
ge g
ju li
ann en</w>
ver lag</w>
stif tung</w>
j ungen</w>
port u
akti v</w>
win di
a e</w>
b ein
wil l</w>
195 2</w>
k ab
at or</w>
er kenn
b om
hauptsäch lich</w>
w and</w>
som mer
g un
soll ten</w>
b ol
män ner</w>
schü ler</w>
woll te</w>
beteili gt</w>
de fin
model l</w>
sach sen</w>
194 8</w>
lini en</w>
194 9</w>
haf t</w>
i den
ge funden</w>
künst ler</w>
t sch
clu b</w>
herr en</w>
j et
gmb h</w>
ch or
ga z
be deu
gr ä
te d</w>
to ur</w>
r -
europ am
wach sen
de -
fol gten</w>
preu ß
n ei
zeit punkt</w>
teil neh
eh t</w>
3 2</w>
ho u
feu er
an gel
c y
pra kti
hi elten</w>
kol oni
p lo
ro man</w>
an aly
st ür
vi c
17 7
st rat
richt ungen</w>
bo den</w>
brin gen</w>
or che
k te
1 -
194 1</w>
willi am</w>
neu n</w>
wer ken</w>
194 2</w>
195 8</w>
zahl reichen</w>
re chen</w>
t un
qu ad
s k</w>
schi ffe</w>
s ci
arti kel</w>
er setzt</w>
194 3</w>
betru g</w>
kön n
west lichen</w>
km ²</w>
mathe mati
glie dert</w>
gewi cht</w>
ver lor</w>
gegen satz</w>
her aus</w>
f ern</w>
g or
gesch rieben</w>
s wi
k ern
eröff net</w>
re stau
re g
le u
chri stian</w>
mit arbeiter</w>
staf fel</w>
be stehen</w>
c la
us-amerikani scher</w>
trä gt</w>
den s</w>
be sa
u hr</w>
ori en
bild ungs
p om
st utt
ein heit</w>
ver bo
auf trag</w>
an zahl</w>
6 5</w>
re ali
be sten</w>
me ch
mü hle</w>
kop f</w>
kna pp</w>
j er
komp le
gesch windi
stutt gar
le -
we st</w>
195 9</w>
au er</w>
soll en</w>
lie genden</w>
ff er
internation ale</w>
ck er
t ation</w>
posi ti
näch sten</w>
ologi sche</w>
d y</w>
t ori
verfü gung</w>
gan gs
is mus</w>
p y
erfolg reich</w>
archite kt
leb ten</w>
geschü tz
ver pflich
d ’
rau m
wir kte</w>
zuneh men
p h</w>
gi sche</w>
spra chen</w>
den s
ann a</w>
gar ten</w>
biet et</w>
gehör ten</w>
r en</w>
195 7</w>
itali en
t rie
histori schen</w>
me xi
kon kur
r y
ts ch</w>
mitt l
journa li
er enden</w>
zwei t
da t</w>
tradi tion
krie gs</w>
bü cher</w>
ab schnitt</w>
i t</w>
b us</w>
stadt teil</w>
ka l</w>
davi d</w>
handel s
n r.</w>
el li
rich ard</w>
ver bess
bil dete</w>
in zwischen</w>
re a
an ten
3 ,
ministeri um</w>
194 7</w>
me ss
2 5
s c
rich ter</w>
pi er
el tern</w>
vor gän
gesam te</w>
dd r</w>
an schluss</w>
ra d</w>
strukt ur</w>
hol z</w>
k einen</w>
sol daten</w>
lich t</w>
unterstütz ung</w>
kti on
ge m</w>
angeb o
flä chen</w>
din g</w>
russi schen</w>
y st
lan de
193 4</w>
195 3</w>
erziel te</w>
ger in</w>
her r</w>
si sche</w>
katho lischen</w>
lei tete</w>
b st</w>
auf tra
groß er</w>
ber n</w>
sü da
l le</w>
gel n</w>
quali fizi
su per
fre d</w>
jo se
krä fte</w>
bet rei
195 5</w>
p ul
me er
201 8</w>
kreu z</w>
den burg</w>
p rie
fre i</w>
w ehr</w>
wirk ung</w>
ff e
195 4</w>
da ch
193 6</w>
ke i</w>
m un
ver lauf</w>
sei t
steu er
lehr e</w>
gh t</w>
wor t</w>
spiel zeit</w>
g ün
n t</w>
et ten</w>
bele gte</w>
ber at
her e</w>
l d</w>
hr t</w>
ver stär
ge wer
gra ben</w>
a pp
le s
teil s</w>
au ss
in dem</w>
st in</w>
mus sten</w>
komm and
aus schu
ch ina</w>
wieder um</w>
di n</w>
kun den</w>
191 8</w>
betrie bs
m und</w>
mon i
sow je
ann e</w>
h ung</w>
192 0</w>
regel mäßig</w>
blä tter</w>
l .</w>
m .</w>
191 9</w>
p on
grenz t</w>
spi tze</w>
zei gen</w>
go uver
b ä
betrie ben</w>
schau spieler</w>
li ber
all en
be ck</w>
kom man
j es
den er</w>
quali fik
tru g</w>
1 :
ver wand
k y
publi k
fahr er</w>
rei se</w>
lei cht</w>
l ern</w>
kör per</w>
lief ert</w>
pat ri
voll ständig</w>
stra hl
si en</w>
kau m</w>
p in
ein fluss</w>
re gen
st ung</w>
di stri
ges und
s berg</w>
bur g-
l ut
lan gte</w>
ell en
d r.</w>
än dert</w>
ver läuft</w>
gouver ne
so ci
ge ben
frau en
fahrzeu ge</w>
m ur
r i</w>
sogen annten</w>
u i
bil der</w>
mer k
ständi gen</w>
welt meisterschaften</w>
straß en</w>
sch lü
sch em</w>
län dischen</w>
er zähl
z in
bo den
o de</w>
f or</w>
präsiden ten</w>
ho ff
wahrschein lich</w>
gro ß</w>
se ch
rit ten</w>
ru dol
jähr lich</w>
über wiegend</w>
brei te</w>
eri sche</w>
na mens</w>
ver l
bek annten</w>
wa ppen</w>
di scher</w>
entsprech end</w>
col lege</w>
her mann</w>
ma gaz
ma in</w>
ein ander
ge ment</w>
fün f
e k</w>
d al
7 5</w>
193 7</w>
en a</w>
dar in</w>
russ land</w>
a del
z a</w>
zen ti
recht s</w>
tre ffen</w>
ro y
städ te</w>
wol f
wettbewer b</w>
ent lang</w>
195 1</w>
fen ster</w>
alex ander</w>
tran s
193 5</w>
zusammen hang</w>
schn ei
ll en
kon tin
minde stens</w>
erfol gt</w>
parte ment</w>
w ü
aus schließlich</w>
fre m
schla g
reprä sent
pun kten</w>
drit te</w>
ty p</w>
dol lar</w>
brit an
verwen dung</w>
arbei t
er ober
auf bau</w>
k le
über nommen</w>
n s</w>
dar f</w>
st ati
sätz e</w>
ger e
3 6</w>
möglich keit</w>
r ein
akti vi
hei ßt</w>
wech sel</w>
scho ol</w>
leist ungen</w>
al li
er zeu
aus zu
ri ver</w>
vi ze
te s
bra si
jam es</w>
er lau
st he
ch an
be endete</w>
ehemali ger</w>
in en
i ii.</w>
is ra
be stä
fol ge
vor der
gen o
g liche</w>
gleich nami
ver ließ</w>
193 0</w>
te st
a y
f ru
zerstör t</w>
heu tige</w>
l s
sch ön
roll en</w>
kom mission</w>
kreis es</w>
eben e</w>
sie ger</w>
f är
ver lu
gel d</w>
g ingen</w>
a po
j on
gi tar
w -
ei s
geor ge</w>
t i</w>
europam eister
gesam ten</w>
gan gen</w>
vol k
mon ate</w>
pro ze
ge macht</w>
si m
not wen
kin d</w>
u t</w>
öst lichen</w>
för derung</w>
st on</w>
l o</w>
famili en</w>
gei st
ne y</w>
mo ti
köni gs
na he
fu hr</w>
erbau t</w>
cht s</w>
d ör
kun de</w>
the ma</w>
ver sammlung</w>
för dert</w>
te u
l ab
ch ine
a st</w>
wi d
pap st</w>
gew ö
verkauf t</w>
kom oti
komp on
nat ür
gele genen</w>
gal t</w>
eng lischen</w>
e mi
dat en
er eig
sa h</w>
beru fen</w>
3 3</w>
aus stellung</w>
n -
da gegen</w>
um gebung</w>
ja g
pi l
mm e</w>
süd lichen</w>
her zog</w>
gö tt
erwar b</w>
ni ssen</w>
v ar
fi sch
ad ol
sel ten</w>
st ör
zwöl f</w>
mi sch
s es</w>
preuß ischen</w>
wich tige</w>
be s</w>
ta gen</w>
zu gleich</w>
ori um</w>
g ä
verl oren</w>
pa ar</w>
verein s</w>
größ ere</w>
kon stan
sen der</w>
ser v
an -
ein heiten</w>
gew inn
preu ßen</w>
zusammen arbeit</w>
ähn lich</w>
auf nahme</w>
dres den</w>
wel cher</w>
tem per
han del</w>
zi ehen</w>
an gaben</w>
olo ge</w>
an gs
ini schen</w>
pop ul
pf al
schwi eri
auf nahmen</w>
li ne
grün der</w>
ar m
er ter</w>
spro chen</w>
n etz</w>
jähri ge</w>
te i</w>
ver fass
rech ten</w>
bar o
i erte</w>
si tu
3 4</w>
bek annte</w>
ze i</w>
dar stellung</w>
an o</w>
lin ge</w>
fil me</w>
tex t</w>
wä hl
ss -
ti erten</w>
pol y
ger ade</w>
ta gs
er fahr
h te</w>
jun ge</w>
v es</w>
durch geführt</w>
schn ell</w>
n ür
gewö hn
gebi eten</w>
jap an</w>
sam mel
fra gen</w>
b ün
w us
stu dien
erhe b
hanno ver</w>
f on
wei te</w>
geb or
festi val</w>
wal ter</w>
min uten</w>
fä llen</w>
pf ei
rö mischen</w>
192 8</w>
ma x</w>
be stand
z ar
hand lungen</w>
193 2</w>
erst es</w>
vi r
hi t
rel ativ</w>
qu ellen</w>
192 9</w>
am en</w>
wo chen</w>
men sch
welt weit</w>
ent deckt</w>
k ru
fabri k</w>
seit dem</w>
wi tz</w>
191 4</w>
b lau
d ge</w>
lauf e</w>
fig ur</w>
tra in
ca st
itali eni
for mi
jahre s
plä tze</w>
ver länger
zes s</w>
ra l</w>
da go
be am
sto ck
ti ons
stam men</w>
da ch</w>
maß nahmen</w>
dü ssel
zi mm
ver hin
s co
n o</w>
auf gaben</w>
stand ar
län der
pl an</w>
e ck
den noch</w>
für st
musi ker</w>
vertre ten
wi es
komp oni
mitt ler
num mer</w>
k g</w>
b te</w>
techni schen</w>
weiter er</w>
li a</w>
17 5
m uni
2 4
kon fli
n s
e a</w>
d lich</w>
t us</w>
dien ste</w>
re du
k lini
sto ff</w>
me sser</w>
o ben</w>
finan z
si n</w>
vor zu
außer halb</w>
vereini gung</w>
u e</w>
ch ern</w>
t rau
rhein -
un be
sch ar
pro te
bay erischen</w>
materi al</w>
g yp
st unden</w>
6 4</w>
le hn
sei en</w>
schie den</w>
bo ur
mo de
c er
star tete</w>
bli ck</w>
c es</w>
la s</w>
insel n</w>
jün ger
0 /
2 -
tie f
bek am</w>
groß britan
gen annten</w>
bedin gungen</w>
bibliothe k</w>
ath le
qu elle</w>
dé partement</w>
wer t
ó n</w>
u kra
sti ll
bet h</w>
auf zu
weit gehend</w>
pa zi
on a</w>
schw er</w>
theat er
gra f
son g</w>
sol che</w>
gr ü
stü cke</w>
el s</w>
stat tet</w>
i l</w>
produ ziert</w>
k ing</w>
le gung</w>
a sso
19 00</w>
ver zi
1 /
jose f</w>
we g
rö mi
a h</w>
italien ischen</w>
s ant
an te</w>
r é
erschi enen</w>
na cht</w>
n y</w>
nie dri
lo k
mittel alter
sai son
er gän
evange li
spru ch</w>
ord s</w>
er möglich
ha gen</w>
ver änder
3 8</w>
wei ß</w>
c le
arbei ter
denk mal</w>
ander er</w>
t ent
jun g
bundes liga</w>
s ani
char les</w>
qu ar
pl än
c us</w>
l l</w>
leist ungs
wor ld</w>
ssen en</w>
re c
h ab
ü bri
verli ehen</w>
com pu
hin gegen</w>
mau er</w>
0 er-
w ör
form ation</w>
erst re
vertre ten</w>
größ eren</w>
gen s</w>
di chte</w>
aus gabe</w>
ergeb nis</w>
stuttgar t</w>
ja ko
her gestellt</w>
vi erten</w>
nörd lichen</w>
grund lage</w>
auf stieg</w>
si eht</w>
philoso phie</w>
bür ger</w>
lo komoti
c ra
192 5</w>
beginn t</w>
vorhan den</w>
bist um</w>
st eine</w>
3 00</w>
bau en</w>
vi e
arch ä
mi ch
ab zu
o v
geprä gt</w>
u p</w>
ein hei
w et
ameri can</w>
tat säch
sk an
schrift steller</w>
la ssung</w>
gi en</w>
gemä ß</w>
st a</w>
gi ert</w>
ort es</w>
sogen annte</w>
regi e</w>
spani en</w>
ei en</w>
p ort</w>
sow jet
prä sen
4 8</w>
tä r</w>
gew innen</w>
er reich
ati schen</w>
st rie
wer te</w>
ent deck
schwar z
be ste</w>
ge halten</w>
4 2</w>
ein fa
zu schau
2 .
g au
besch lo
da mpf
ga u</w>
christ op
qu er
ausge tragen</w>
kom pl
be satz
nicht s</w>
192 4</w>
mä d
ver letz
ge bildet</w>
ck -
verfü gt</w>
t aus
wer tung</w>
bisch of
spra ch</w>
ho ch</w>
der i
3 7</w>
ti gten</w>
ro ten</w>
m o</w>
her bst</w>
c y</w>
v ent
sch ne
di gen</w>
renn t</w>
ver gleich
sp a
au ssa
schwe ster</w>
turni er</w>
gen heit</w>
sk a</w>
wo hl
sse ur</w>
re form</w>
kateg orie</w>
jahr zehn
tsche chi
ge worden</w>
si erten</w>
ogra phi
ma j
ro t
neu es</w>
m es
wei le</w>
zü rich</w>
nür n
g ab
192 7</w>
gesch lagen</w>
4 4</w>
her stellung</w>
w .</w>
so dass</w>
vat ers</w>
c el
eh em
juni or
wissenschaft lichen</w>
ni tz</w>
neu er</w>
ent halten</w>
lie be</w>
wur f</w>
co u
den den</w>
i v</w>
ss er
fäl le</w>
el f</w>
der zeit</w>
in geni
gla s
v ö
hin zu</w>
auf gabe</w>
prin zi
schließ en</w>
1 –
mu t</w>
nor dosten</w>
fig uren</w>
all ein</w>
191 0</w>
ben ach
a k</w>
3 -
t ol
wieder hol
ä gyp
me er</w>
mittel n</w>
k ehr</w>
großbritan nien</w>
je de</w>
bö h
her ren
so li
ki e
unmittel bar</w>
nation alen</w>
se kre
ju den</w>
plat zi
jewei ligen</w>
di gung</w>
d ani
konkur ren
re st
wei ht</w>
f arb
regi sseur</w>
mehr fach</w>
herr sch
w ski</w>
wa shin
sa che</w>
t ut
katho li
kam mer</w>
a ca
si a</w>
welt kriegs</w>
gegrün deten</w>
geschwindi gkeit</w>
west f
do u
unterstütz t</w>
bezir ks
d lichen</w>
rä ume</w>
er sch
besitz er</w>
einge führt</w>
stu den
wi t
stell vertreten
pha se</w>
or e
lin ken</w>
193 1</w>
poli zei
sän ger</w>
te ams</w>
ut n
i re</w>
a ward</w>
ju gend</w>
at s</w>
bahn strecke</w>
lich keiten</w>
par a
katho lische</w>
s burg</w>
bar keit</w>
man u
z ung</w>
a cht
ga l</w>
durch schnitt
bedeu tet</w>
tor e</w>
n eter</w>
pä dago
besch rieben</w>
o .</w>
beru f
ta t</w>
debü t</w>
e ffe
zeich nung</w>
b und</w>
ge fü
ff er</w>
del t</w>
iden ti
ch or</w>
zu stand</w>
2 /
ck te</w>
staat es</w>
pe di
192 1</w>
vi ce</w>
vi du
einge stellt</w>
c ul
zu erst</w>
in fan
sci en
gr an
sing le</w>
fl or
frü heren</w>
192 3</w>
offizi ell</w>
ander s</w>
reich er</w>
mitglie dern</w>
a mi
hal te</w>
frie d</w>
wach sen</w>
wei s</w>
197 0er</w>
sam t</w>
si gn
p hen</w>
elekt ro
ein führung</w>
sach sen
wei s
indi vidu
5 5</w>
süd westen</w>
zwei ter</w>
ss yst
verhält nis</w>
indu strie
th ür
fil men</w>
flü gel</w>
war e</w>
in ve
re ste</w>
co ur
ster n
om en</w>
g ne</w>
tech n
beru fs
s ab
ver lassen</w>
ai r
angri ff</w>
192 6</w>
al d</w>
4 /
nieder lan
sch wä
schlu ss
g lü
ur kund
unter rich
qu e
dien en</w>
ge spielt</w>
ober en</w>
könig reich</w>
arbei tung</w>
wär e</w>
si ve</w>
or ten</w>
ben ö
etz t</w>
ar abi
end gül
ru mä
t ü
m mi
auß er</w>
prä si
bron ze
mittel s</w>
3 /
poli zei</w>
si eren</w>
lich t
wolf gang</w>
höch sten</w>
her steller</w>
t rit
hei l
lo se</w>
bundes staat</w>
ge ber</w>
4 ,
bevölk erungs
umfan g
sti sch</w>
grenz en</w>
nieder lage</w>
lauf bahn</w>
aus einander
er ende</w>
we s
zi p
dy na
schwe den</w>
uni ted</w>
zu g
stadi on</w>
mittler weile</w>
c ri
0 –
vi lla</w>
z one</w>
191 2</w>
t rei
d rück
192 2</w>
ben utz
la den</w>
be festi
nord westen</w>
rin g</w>
fließ t</w>
land -
lei cht
rit z</w>
sho cke
masch inen</w>
be einflu
ogra fi
gar ten
3 9</w>
obje kte</w>
reich s</w>
198 0er</w>
ei shocke
ver gleich</w>
et h
land schaft</w>
wär ts</w>
i g
al bert</w>
i erten</w>
lauf en</w>
schlo ssen</w>
rudol f</w>
hier bei</w>
we ge</w>
re da
unter richt</w>
revolu tion</w>
17 6
ja z
kriti k</w>
rat es</w>
hi e
veröffentlich ung</w>
zu gehöri
op fer</w>
n ar
oper ation</w>
mög lichen</w>
t am
di ver
washin gton</w>
k ung</w>
sex u
win d
gol d</w>
k lei
gestal tung</w>
d nis</w>
sü dosten</w>
st rö
stro m
ver lei
allgem einen</w>
entsp richt</w>
wi es</w>
hä tte</w>
berü hm
min er
a da
ver mö
a pi
c t</w>
or e</w>
al ten
al t</w>
könn te</w>
bewohn er</w>
fre un
hal l</w>
sp d</w>
gü ter
är z
d ün
g .</w>
flu ss
hö hen
j an</w>
vor ge
nutz ung</w>
g li
ex em
mech ani
men ge</w>
vor berei
be auftra
verantwor tlich</w>
strei t
her vor</w>
t ari
weni gen</w>
westf alen</w>
württem berg</w>
rat s
ele mente</w>
fre und
p li
ger t</w>
we sen
gel ten</w>
bau m
2 :
land wirtschaft
frei e</w>
l et
n ungs
ein richtung</w>
sin ne</w>
gi pf
ein richtungen</w>
jü dischen</w>
höch ste</w>
kommuni k
or s</w>
mo un
9 /
ungar n</w>
st ol
z es</w>
an des</w>
gen au</w>
mediz in</w>
studi en</w>
di pl
bil deten</w>
histori sche</w>
we b
kin dern</w>
op er</w>
versor gung</w>
sp on
je des</w>
verbin dungen</w>
pro f
wi r</w>
196 0er</w>
re fer
sto ck</w>
weiter es</w>
e ber
ern e</w>
ger ü
8 5</w>
di ffer
ta ges
mini ster
gleichnami gen</w>
on y
wichtig sten</w>
stän den</w>
199 0er</w>
wi ll
ger in
got tes
lou is</w>
fä llt</w>
bri tische</w>
par alle
m äch
4 1</w>
ori en</w>
bahn en</w>
ort schaft</w>
roy al</w>
früh jahr</w>
us-amerikani schen</w>
kur ze</w>
ka s</w>
zenti meter</w>
dom ini
ar zt</w>
ch o
e st</w>
hei mer</w>
ord ent
na mens
w all
wor fen</w>
t rin
the men</w>
ni kol
zeich nungen</w>
an la
pflan zen
x is</w>
vier tel</w>
angebo ten</w>
sta te</w>
kti ve</w>
h ell
mi r</w>
stimm ung</w>
lie fer
per son</w>
en des</w>
ru f</w>
star t</w>
bis heri
m lich</w>
parlam ent
sp rü
6 ,
p o</w>
lern te</w>
person en
f ro
setz ten</w>
inter pre
e .</w>
versu chte</w>
schn ell
gewi esen</w>
a v
zei gte</w>
produ ktions
besch rän
bestimm t</w>
191 3</w>
the orie</w>
ti erung</w>
ent steh
al tar</w>
fran c
ten den</w>
kl einer</w>
men ten</w>
versu cht</w>
auf gelöst</w>
grupp en
er fü
te -
ver s
säch sischen</w>
enz en</w>
er de</w>
4 7</w>
u fer</w>
gu sta
ex peri
dokum ent
ali tät</w>
s z
7 ,
fron t</w>
4 00</w>
a h
4 3</w>
erweiter t</w>
wei ßen</w>
er o
paralle l</w>
le g
welt krieges</w>
zy lin
c in
ju sti
si onen</w>
a ge</w>
fa kul
gem äl
st an</w>
p ut
is la
utn ant</w>
ai r</w>
at lan
alter n
be wus
ä r</w>
p ati
t ab
reich es</w>
5 /
lu x
j etzt</w>
c i</w>
fried rich
fel der</w>
film s</w>
gr au
pflan zen</w>
6 /
n ö
ci a</w>
li e</w>
intere sse</w>
eli sa
s v</w>
land wirtschaft</w>
herzo gt
stan z</w>
th eit</w>
infan teri
kor re
da hin</w>
jo hn
pfal z</w>
aufge führt</w>
c ur
ste te</w>
l i</w>
möglich keiten</w>
ba den-
ne l</w>
ung spro
far ben</w>
ba den</w>
ver tra
strat e
zi e
ga s</w>
phi l
benach bar
d ler</w>
stand ort</w>
ter rit
da n</w>
s c</w>
wissenschaft ler</w>
ho cke
religi ö
versi ch
rit ter
gan g
haup t</w>
industri e</w>
erschein t</w>
5 –
sch at
sch lei
i en</w>
kali for
wissenschaft liche</w>
or den</w>
verbrei tet</w>
land s
liter atur
er hielten</w>
is land</w>
t an</w>
besu ch</w>
städ ten</w>
tel e
dipl om
stand s
ar s</w>
stä tten</w>
fre und</w>
sowjet union</w>
g um
ehe frau</w>
ergeb nisse</w>
4 6</w>
um benannt</w>
5 ,
dar gestellt</w>
bet on
go tt</w>
. -
de sig
ti s</w>
che mi
un ten</w>
beschäf tigt</w>
sä ul
trie b
w n
d rän
ver halten</w>
l y</w>
archite kten</w>
g nis</w>
wei h
ma ssi
g sten</w>
i r</w>
situ ation</w>
medi en</w>
9 5</w>
sp richt</w>
sö hne</w>
hou se</w>
fiel d</w>
di gi
be u
verb andes</w>
na cht
gele gene</w>
masch inen
vor stand</w>
äl teste</w>
natur schutz
mü ller</w>
versu ch</w>
op en</w>
nor da
cham pi
er kennen</w>
ließ en</w>
gen eh
2 –
son nen
gü ter</w>
bl ut
bre men</w>
r auch</w>
m ung</w>
c e-
zähl en</w>
191 1</w>
st -
tra f</w>
ar gent
li s</w>
ri e</w>
teil te</w>
pol nischen</w>
pa ss
re ser
so ft
am at
hei li
win ter</w>
teilneh mer</w>
rin gen</w>
har t
bau te</w>
ungs weise</w>
schrei ben</w>
8 –
mittel alter</w>
aus wahl</w>
den de</w>
konzep t</w>
h am</w>
ma ch
sen dung</w>
zentr ale</w>
graf schaft</w>
na hr
ru s</w>
ha l</w>
w hi
stamm te</w>
ra m
p a</w>
bezieh ungen</w>
f lan
proble me</w>
li erte</w>
in -
ein gerichtet</w>
un ge
ei ch
hei del
an erk
stra f
ver eine</w>
ligi sten</w>
wir ken</w>
zi ger</w>
all es</w>
regi ment</w>
sätz en</w>
rec ords</w>
fußball spieler</w>
pun kt
sch al
erklär t</w>
an gehöri
191 7</w>
unter halb</w>
kan al</w>
n un
über ra
e ur</w>
durch messer</w>
g an</w>
schauspiel erin</w>
k et
4 9</w>
parlam ent</w>
lin a</w>
190 5</w>
s ein
w y
vol l</w>
bestimm ten</w>
he ssen</w>
gescho ss</w>
besa ß</w>
szen e</w>
gele gent
lö s
ss on</w>
deutsch sprachi
se u
sa gt</w>
ge wal
et ab
wi tsch</w>
he er
ff t</w>
schü tz
e du
k an</w>
fer din
blie ben</w>
schließ t</w>
spiel ten</w>
lin gs
sch au</w>
best ritt</w>
verfass ungs
eigent lich</w>
ger u
a de
stat us</w>
g är
be la
ar e
ro sen
lä ssi
wei ler</w>
dar an</w>
fran k</w>
d ner</w>
s sten</w>
190 7</w>
zeich nete</w>
nor we
hei mat</w>
rück kehr</w>
er mor
sta hl
sp anischen</w>
erz bischof</w>
vi a</w>
klo ster
do s</w>
leben s</w>
5 2</w>
bi o
bi a</w>
b ut
fu ß</w>
adol f</w>
kon fer
ska u</w>
ver trat</w>
klär ung</w>
mi kro
ko mi
gan ze</w>
abi tur</w>
zent ri
ver stän
düssel dorf</w>
stre cken
pro zess</w>
p le
stat tung</w>
siedel t</w>
r al
di na
g y</w>
fern er</w>
schä tz
einwohn er
vier tel
blat t</w>
kla r</w>
sym bo
lie der</w>
histori ker</w>
r on</w>
bet ro
mö n
y a
häus ern</w>
lo sen</w>
bestimm te</w>
kom bin
veranstal tungen</w>
olo gen</w>
m om
köni gs</w>
sicht lich</w>
h an</w>
dis zip
kongre ss</w>
über zeu
schaf fen
brei t</w>
wer de</w>
geschä ft</w>
en se
masch ine</w>
x en</w>
pa ssa
gu te</w>
sto ffe</w>
zunehmen d</w>
mo skau</w>
ss lich</w>
gen au
char ts</w>
190 8</w>
wo durch</w>
lin ks</w>
hi gh
fern sehen</w>
schei ter
m ori
sti tut
inten si
nom iniert</w>
austra lien</w>
bi g</w>
gu i
ste ch
ver gan
wo od</w>
frei heit</w>
b än
bon n</w>
er zieh
ant on</w>
lie ben</w>
bri ti
war t</w>
6 –
phili pp</w>
m alen</w>
° c</w>
unterschied lichen</w>
kana da</w>
bezieh ung</w>
ham burger</w>
flug hafen</w>
far be</w>
sk ul
3 –
wei ch
französi scher</w>
8 ,
le ute</w>
ver legt</w>
gel s</w>
autor en</w>
or gel</w>
ge zeigt</w>
ha bili
evange lischen</w>
z on
sp oli
zwei mal</w>
sp o
auf lösung</w>
mün ster</w>
asso ci
17 0
ra chte</w>
braun schwei
7 –
tradi tion</w>
auf ent
he k
brü der</w>
b aus</w>
sy l
politi sch</w>
deutsch lands</w>
bele gt</w>
fähi gkeit</w>
sin g</w>
ver haf
a a
ge fän
pro to
v o</w>
5 1</w>
ver fassung</w>
ati sche</w>
gra mm</w>
z ell
w en</w>
h aber</w>
t et
um ge
inform ationen</w>
qualifik ation</w>
an ce</w>
ch teten</w>
inte gri
st ets</w>
über tra
sel ten
i e</w>
eben da</w>
trä ger</w>
bran d</w>
blei bt</w>
o m</w>
andre as</w>
mäd chen</w>
stu fe</w>
w in</w>
um s
plat te</w>
an hän
läu fer</w>
1 000</w>
kam mer
dor fer</w>
te e</w>
4 -
ange legt</w>
sich ts
sti gen</w>
berei che</w>
inn eren</w>
st in
der te</w>
se min
a di
7 2</w>
wer ner</w>
blei ben</w>
süd östlich</w>
m äl
dar aus</w>
s i</w>
j ar
a y</w>
mar ine</w>
fl ori
el e</w>
besitz en</w>
190 6</w>
regi onen</w>
bau ern
be setzung</w>
er wer
tatsäch lich</w>
anfan gs</w>
l ers</w>
deutsch -
autom o
d liche</w>
spezi ali
bran denburg</w>
wesent lich</w>
er forder
gebir ge</w>
p ur
u n</w>
di a
gel t</w>
prü fung</w>
römi sch-
bo ot</w>
unter en</w>
ange le
griechi schen</w>
förmi g</w>
stre cken</w>
bild hau
be feh
j .</w>
behör den</w>
me ck
pfarr er</w>
ent weder</w>
nation ale</w>
gr and</w>
äl teren</w>
posi tionen</w>
moder nen</w>
f lei
7 /
h oll
4 –
forder ungen</w>
i ra
origin al
pa ssi
an lä
berei chen</w>
errich tete</w>
au st
gelegent lich</w>
lei t
schi r
süd westlich</w>
' s</w>
jap anischen</w>
gouverne ur</w>
ge schaffen</w>
p ti
rei cht</w>
et y</w>
a i</w>
nor mal
lut her
möglich erweise</w>
konta kt</w>
sp rechen</w>
kont rolle</w>
nahe zu</w>
abgeord neter</w>
system s</w>
ver la
kop f
e y</w>
sk y</w>
fi li
schwer punkt</w>
com pan
ger ech
ausschu ss</w>
pi lo
k w</w>
hor n</w>
b ten</w>
organis ationen</w>
waff en
al ben</w>
6 6</w>
ss a</w>
si on
gew onnen</w>
d ati
5 4</w>
hn en
öffentlich keit</w>
ro t</w>
pf en</w>
über tragen</w>
st ren
ch ron
7 1</w>
9 9</w>
brau n</w>
besch ä
5 6</w>
o vi
d v
elekt ri
d sch
en nung</w>
b b
bahn hof
190 9</w>
hal te
bü hne</w>
wid me
i scher</w>
exem pl
sicher heit</w>
ro ck
be frei
gri ffen</w>
kte ur</w>
hü tte</w>
st ab
geg ner</w>
us- dollar</w>
star ken</w>
sicher heits
steh enden</w>
moder ne</w>
g y
ver pa
gegrün dete</w>
gestal tet</w>
dau er</w>
k rö
ge heim
d ul
öffent liche</w>
gesell schaften</w>
ver fasste</w>
p r
ã o</w>
gr en
fun k
wahl kreis</w>
t v</w>
verkauf te</w>
le op
sin n</w>
ka r</w>
un ver
ein satz
betrie b
ssen e</w>
men schen
bau m</w>
gra b</w>
z ün
c op
erfol ge</w>
nord östlich</w>
k ts</w>
che f</w>
6 2</w>
land schafts
f ritz</w>
ant oni
ne g
rei sen</w>
um welt
b o</w>
hen ry</w>
angel es</w>
eini schen</w>
schrei b
an walt</w>
rä um
compan y</w>
9 6</w>
entschei dung</w>
zuneh men</w>
gi g</w>
konstru ktion</w>
f a</w>
ma cht
charak ter
du s</w>
einzel ne</w>
191 5</w>
spie gel</w>
kt oren</w>
che mie</w>
klein ere</w>
nord westlich</w>
hek tar</w>
ben utzt</w>
ma y
klo sters</w>
ko sten
se g
190 4</w>
spr ung</w>
nord rhein-
fakul tät</w>
an z</w>
fahrzeu g</w>
um geben</w>
ru he</w>
schle swi
m s
9 –
al fred</w>
mon aten</w>
kri min
3 .
er halten
bezeich nete</w>
untersuch ungen</w>
ge werk
kar ls
erstre ckt</w>
beg onnen</w>
8 8</w>
c l
t schaft</w>
gri ff</w>
s ko
zurück ge
spä tere</w>
kre di
radi o</w>
sp ren
f lie
bis lang</w>
s un
st rä
wür den</w>
mittl eren</w>
ur op
wir kt</w>
6 8</w>
bi eten</w>
ver stor
t raten</w>
ener gie</w>
stu hl</w>
t ul
zuge ordnet</w>
o mi
c ti
zu gän
betrie be</w>
teil nahme</w>
kämpf en</w>
5 3</w>
6 1</w>
sie g
gel d
pfarr kirche</w>
europä ische</w>
restau ri
gen -
bra ch</w>
mehr heit</w>
sta r</w>
mm el
m y</w>
auf lage</w>
flü sse</w>
t é</w>
g keits
at s
c li
lö ste</w>
6 3</w>
di erte</w>
ti ges</w>
gew öl
assi sten
v et
f s</w>
met all
gi l
gefan gen
ge währ
fun ktion
ener gie
verb and
9 ,
handel te</w>
sin n
me ssen</w>
st es</w>
anstal t</w>
kommun al
völ lig</w>
15 0</w>
me dien
reg ul
ferdin and</w>
ani a</w>
magaz in</w>
in stitut
übri gen</w>
b ab
musi ka
wa ffe</w>
kalifor nien</w>
fre qu
ver starb</w>
fun ktionen</w>
gemein der
di ge</w>
g ste</w>
partei en</w>
frei burg</w>
so uth</w>
produ kte</w>
klu b</w>
kar ten</w>
de mon
ent schied</w>
lan gs
je dem</w>
co -
kommand o</w>
am a</w>
mari e</w>
gebiet es</w>
dd r-
auf tritt</w>
to de</w>
än derung</w>
vor wiegend</w>
bor n</w>
fl äch
ge sprä
st all
6 7</w>
bau er</w>
staat lichen</w>
kan er</w>
fe der
maj or</w>
wa ffen</w>
la bel</w>
fru cht
vert rau
i -
elekt roni
o xi
8 /
plat ten
ll on</w>
ver fol
the ologie</w>
di et
frie den</w>
elisa beth</w>
österreichi sche</w>
t ner</w>
geplan t</w>
engli sch</w>
be zug</w>
ba sk
auf gebaut</w>
ver mu
k on</w>
quad rat
la st</w>
191 6</w>
man ch
werk s</w>
geb ro
195 0er</w>
gen ö
für sten</w>
ron di
g b</w>
ho tel</w>
schwer en</w>
an e</w>
le i</w>
chi ca
dau er
v ul
ger mani
zu ständig</w>
verein s
rit ter</w>
rh ein</w>
min der
frank fur
bo u
gemeinsam en</w>
fizi ert</w>
wesent lichen</w>
angeb ot</w>
nürn berg</w>
setz ungen</w>
beschrei bung</w>
bo t</w>
progra mm
6 00</w>
erklär te</w>
un gefä
schlu g</w>
bul gar
bedin gt</w>
strahl ung</w>
christop h</w>
architekt ur</w>
190 3</w>
an delt</w>
di um</w>
neu bau</w>
ni k</w>
7 6</w>
statt dessen</w>
sp un
ex i
ment s</w>
z ellen</w>
c lar
wo che</w>
fa ssen</w>
ar rondi
ersch einen</w>
ini sche</w>
mar ke</w>
ast ron
be dro
system e</w>
do m</w>
kat a
e ar
b renn
tz er</w>
ve -
süda fri
prei s
t ti
essi on
9 8</w>
er e
anwen dung</w>
n es</w>
urkund lich</w>
mon d</w>
vari ante</w>
7 8</w>
zähl ung</w>
hoch schul
ö kon
fußball -
5 7</w>
ß e</w>
auf gestellt</w>
mul ti
geneh mi
ab t</w>
fä hrt</w>
land tag</w>
mal erei</w>
t ren
i se</w>
sk la
ausge stattet</w>
8 6</w>
kom miss
ba ck
sprech er</w>
ru he
ne w
gen t</w>
si er
rück en
rin g
defin i
den ken</w>
star ke</w>
us-amerikani sche</w>
mon t
th a</w>
bo gen</w>
pal ä
hal ts
ro ck</w>
nat ur</w>
kor ps</w>
ma ssen
um fasste</w>
pf le
milli meter</w>
je an</w>
meck len
musi c</w>
tran spor
demokrati schen</w>
ungefä hr</w>
for dert</w>
i a</w>
kl ein</w>
ti l
br ut
promo viert</w>
repräsent anten
sse ment</w>
li zen
en berg</w>
5 -
grün dungs
ursprün glichen</w>
k es</w>
zi vil
dani el</w>
schaf fte</w>
unterschied liche</w>
bel le</w>
ter in</w>
motor en</w>
e ssen</w>
ro u
techni sche</w>
po sten</w>
mün det</w>
schni t
beri cht</w>
ch in
5 8</w>
behör de</w>
s olo
et ern</w>
9 2</w>
lin g
dies el
ge fa
be mü
190 2</w>
bestand teil</w>
zeit weise</w>
de ta
pre ssi
studi o</w>
beg annen</w>
op ti
flu g</w>
lich em</w>
der -
sch all
al ber
preu ßi
ex pedi
indi en</w>
kar te</w>
unterschie d</w>
schwar z</w>
be setzt</w>
nor th</w>
rich ten</w>
o mie</w>
s heim</w>
di gte</w>
wei ten</w>
begri ff
sä m
sä ssi
wil d
denk male</w>
ter er</w>
sowje tischen</w>
vor her</w>
gan zen</w>
hu b
es s</w>
nutz en</w>
ber ge</w>
ko w</w>
3 0
zi eren</w>
ko hlen
bo gen
sti g</w>
in folge</w>
mon t</w>
kab in
run den</w>
zurück zu
lich -
schaf ter</w>
ne -
schwe dischen</w>
th ur</w>
ort ho
7 7</w>
be sie
be sser</w>
kün f
hr e</w>
grün en</w>
er hält</w>
schi cht</w>
gusta v</w>
fer tigt</w>
5 9</w>
c lau
l un
en burg</w>
8 3</w>
betra chtet</w>
spä ten</w>
vol le</w>
spä t
bre cht</w>
ber gen</w>
ba i
ab geschlossen</w>
vide o</w>
hocke y</w>
kompon ist</w>
sch er
schwar zen</w>
studen ten</w>
ell a</w>
unabhängi g</w>
7 4</w>
berü ck
za hn
äl testen</w>
kur zen</w>
adel s
kom ö
peri ode</w>
par ks</w>
ein gang</w>
soci ety</w>
manch mal</w>
lu s</w>
ver s</w>
a is</w>
ent stan
stro m</w>
verb lie
län dische</w>
tex te</w>
8 2</w>
pro p
jo han
son gs</w>
gew inn</w>
ni scher</w>
berück sich
bri ga
ho h
f ul
wi ssen</w>
sei ther</w>
nor d</w>
gesell schaft
pro vi
verschie dener</w>
amerikani sche</w>
n .</w>
be cken</w>
ri si
i b
ci r
son n
190 1</w>
präsi dent
zu gang</w>
verb rachte</w>
jaz z</w>
er hoben</w>
kon zer
russi sche</w>
si oni
genö ssi
an er
star t
flu cht</w>
ko or
ver sehen</w>
ge gn
d schaft</w>
mittel t</w>
po ten
stär k
model le</w>
bedeut end
8 00</w>
an er</w>
etz ung</w>
y l
v in</w>
o di
ro s</w>
for ts
initi ative</w>
ent schieden</w>
v on
universi täten</w>
einzi gen</w>
dor tigen</w>
8 4</w>
sho w</w>
dä ne
s mit
bau ern</w>
ar ts</w>
189 9</w>
gen e
y n</w>
bezieh ungsweise</w>
k rat
heidel berg</w>
spe kt
ogra phie</w>
fun de</w>
wa n</w>
ken nung</w>
gemäl de</w>
sch ritt</w>
ex tre
eröff nete</w>
zusammen ge
stell ungs
sti ge</w>
anlä sslich</w>
gu ten</w>
ni a</w>
kon ven
quali tät</w>
da l</w>
schu f</w>
metho de</w>
kan ton
x e</w>
pra xis</w>
e .
b lan
ne ur
8 1</w>
sachsen -
r or
c en
mut ter
sp en
ki sche</w>
portu gie
qu arti
k .</w>
kü hl
au gs
se qu
ser vat
groß es</w>
ell es</w>
tig keiten</w>
ho her</w>
österreichi scher</w>
denk mäl
ka der</w>
9 4</w>
sta b</w>
kol legen</w>
o x
par is
be haup
geschi cht
unterneh mens</w>
eng lische</w>
ton nen</w>
ein gemein
ten de</w>
schrift stell
f ö
ch ro
9 3</w>
unterschei den</w>
nie der</w>
ent stehen</w>
n d</w>
et a
wo chen
ja co
chica go</w>
beschrei bt</w>
ange geben</w>
sekre tär</w>
da cht</w>
la ke</w>
ä mpf
ol a</w>
physi k</w>
wider stand</w>
her kunft</w>
hein z</w>
ma gi
7 3</w>
9 7</w>
sprä siden
sil ber</w>
stei gen</w>
be handlung</w>
vo gel
plat ten</w>
zeit raum</w>
au gen
ani scher</w>
sper r
b in</w>
for st
h -
tä u
si ons
pra g</w>
tsche ch
ta i
bat ai
in o</w>
st ation
slo wa
es -
ar a</w>
189 8</w>
hä tten</w>
le utnant</w>
sän gerin</w>
mag de
stie gen</w>
dre ht</w>
ent wurf</w>
3 :
pp er</w>
klassi schen</w>
zähl te</w>
k ers</w>
erinn ert</w>
stan des</w>
amat eur
eig net</w>
kon zentri
port rä
c ar</w>
at a</w>
kri se</w>
eishocke y
re i</w>
gl et
mana gement</w>
om et
st ationen</w>
vor gesehen</w>
dar m
woll en</w>
kehr t</w>
re st</w>
ta g
le on
teri en</w>
tie fe</w>
ri s</w>
fin al
amts zeit</w>
frie dens
mar gar
ch ner</w>
h o</w>
jü dische</w>
verb ände</w>
gegen d</w>
6 9</w>
promo vierte</w>
8 9</w>
aus land</w>
regel mäßi
wor ben</w>
zieh t</w>
fass ade</w>
gebäu des</w>
v y</w>
main z</w>
wür z
sch rit
gerä t</w>
part ner</w>
orche ster</w>
blat t
führ enden</w>
künst ler
be lieb
184 8</w>
s l
p us</w>
hinter grund</w>
ch roni
th ese</w>
189 0</w>
m anischen</w>
ar y</w>
mann s</w>
charak ter</w>
gebor ene</w>
de cken</w>
mün dung</w>
rei se
s bach</w>
ins zen
hor st</w>
kon serv
repräsentanten haus</w>
untersuch ung</w>
ani en</w>
ari schen</w>
auf führung</w>
stra fe</w>
sozi alen</w>
gener ation</w>
ho hen
ga s
8 7</w>
berlin -
er richtung</w>
ein fach</w>
dat um</w>
mi o.</w>
bri dge</w>
al p
verur teilt</w>
ni sch</w>
konfer enz</w>
flü ssi
n y
k um</w>
blü ten
glei che</w>
t af
di ert</w>
be wahr
bundes republik</w>
st einen</w>
hist or
d ei
ser bi
c du</w>
kü sten
ern ä
be fördert</w>
a den</w>
ma gn
frei willi
eini ger</w>
get ö
hö fe</w>
k ell
b rech
na pol
9 1</w>
b am
sa l</w>
institu te</w>
mann schafts
mit einander</w>
fiel en</w>
ste dt</w>
ma ss
hö heren</w>
i t
meri ka</w>
schaf ft</w>
weib chen</w>
ober halb</w>
n annte</w>
fi sche</w>
met ro
ide e</w>
k ette</w>
cent er</w>
a chten</w>
strukt ur
strei fen</w>
m in</w>
g g</w>
p seu
tür kei</w>
an sässi
stam men
eigen schaften</w>
be grün
nen nt</w>
aus nahme</w>
st ran
produ ktionen</w>
tor en</w>
offizi er</w>
re de</w>
g ge</w>
be mer
en g</w>
el -
ger -
ä m
7 9</w>
afri ka</w>
m mel</w>
hal bin
geb lich</w>
gen u
g ul
frü h</w>
ge di
c tion</w>
mari en
sie ben
kti v</w>
re sul
da e</w>
zi er
189 5</w>
po kal</w>
ati k</w>
beteili gung</w>
metho den</w>
flo tte</w>
arrondi ssement</w>
be lie
wel l</w>
brie f</w>
krei se</w>
gemeinsam e</w>
lie gende</w>
lager ung</w>
beri chtet</w>
ro te</w>
eröff nung</w>
a z
nordrhein- westfalen</w>
at er</w>
ver lie
189 6</w>
tro cken
car o
ober fläche</w>
ent lassen</w>
ent steht</w>
wen de</w>
gerä te</w>
zentr alen</w>
entwick lungs
g ur
hil fs
chine sischen</w>
offizi elle</w>
su s</w>
lo gi
wand te</w>
get rennt</w>
strei t</w>
bür o</w>
ber g-
führ ungen</w>
sa ar
endgül tig</w>
l é
foto grafi
kranken haus</w>
qu es</w>
ben edi
eigen es</w>
groß teil</w>
si cher</w>
g in</w>
ar z
handel n</w>
sant a</w>
sp h
schlag zeu
th or
ni col
bürger meister
1, 5</w>
gebur ts
phili pp
associ ation</w>
187 1</w>
in de
über nahme</w>
inn e</w>
epi so
zw angs
so fort</w>
or gan
jako b</w>
bun des</w>
t tern</w>
europ a
evange lische</w>
a ku
fra ktion</w>
auto bahn</w>
für st</w>
16 0
sti ft</w>
ab end
n au
ali en</w>
flü gel
ben annte</w>
tel s</w>
west -
il lu
beschäf tigte</w>
a c</w>
könig in</w>
damali ge</w>
sen i
zu folge</w>
wirtschaft lichen</w>
ach im</w>
z em
ermöglich t</w>
ro ute</w>
ein gesch
fläch en
aus e</w>
kl aus</w>
189 7</w>
oni e</w>
an gesehen</w>
aktivi täten</w>
gefa hr</w>
be darf</w>
lokomoti ven</w>
ne um
sam keit</w>
sur -
erfolg reich
minde st</w>
gemeinde gebiet</w>
ti er</w>
zu mindest</w>
i sa
herausge ber</w>
bek lei
philoso phi
halbin sel</w>
lehr te</w>
i erung</w>
tri fft</w>
regel n</w>
strukt uren</w>
r ut
stellvertreten der</w>
ge dan
verpflich tet</w>
gen annte</w>
p fa
mehr erer</w>
ge tragen</w>
se y</w>
erreich ten</w>
führ ungs
pet ers
sta gs
be vorzu
col um
allgem ein</w>
le y
stur m</w>
existi ert</w>
radi o
lan gt</w>
f ell
plat t
sied lungs
publik um</w>
alo g</w>
ma ß</w>
seri en</w>
ba k
p t</w>
bisch ö
existi eren</w>
däne mark</w>
f .</w>
er wachsen
am e</w>
rat s</w>
tra g
plan ung</w>
u el</w>
r ele
aus druck</w>
premi er
ki el</w>
kt ur</w>
di men
bar er</w>
ein kommen</w>
herr n</w>
ander erseits</w>
gla s</w>
v all
bru ch
geschle cht</w>
gän ge</w>
oni schen</w>
um st
m i</w>
f an</w>
sch an
co mi
wach st
rea ktion</w>
je den</w>
ern annte</w>
städ tischen</w>
wei he</w>
hol te</w>
o k</w>
aus stellungen</w>
bo x
haus e</w>
komman de
verbo t</w>
kar o
kla ssen</w>
in tel
sch ach
r hy
ge kommen</w>
staat san
offizi ellen</w>
inve sti
her z
al er</w>
ver ab
assisten t</w>
di chter</w>
gesund heits
regi ster</w>
ar i</w>
beru f</w>
ger te</w>
brei ten</w>
j ür
eng l.</w>
sp l
od or</w>
inter national
li eren</w>
feu er</w>
zwe ck</w>
zimm er</w>
grund sätz
ssyst em</w>
kön ne</w>
mü hl
fo ot
st op
plän e</w>
ein schließlich</w>
go sla
pan zer
gött ingen</w>
meer es
fun k</w>
gipf el</w>
aus bau</w>
ga sse</w>
denkmäl er</w>
be hin
zu meist</w>
vor auss
tro tz
kron e</w>
fre unde</w>
gro up</w>
api e</w>
drei ßi
herzogt um</w>
stimm e</w>
pom mern</w>
at om
stär ke</w>
ati sch</w>
jo s
verbin det</w>
disk us
sti e</w>
kon tra
b ungen</w>
h i</w>
j eni
kenn t
proble m</w>
er gibt</w>
kur t</w>
bask et
kilom etern</w>
schmi dt</w>
ge walt</w>
ma cher</w>
briti sh</w>
verhin dern</w>
sa gen</w>
läu fi
neu seel
dun kel
lu ft</w>
aca dem
an genommen</w>
va te</w>
verteidi ger</w>
ne ut
a ss
e y
akti ven</w>
kan z
wirk ungen</w>
be ster</w>
sti scher</w>
lan ger</w>
an ge</w>
n an
hör en</w>
eigent ü
che ster</w>
li tau
academ y</w>
hö here</w>
äl tere</w>
bestä tigt</w>
ur s</w>
/ h</w>
verhält nisse</w>
nieder ländischen</w>
á n</w>
an hand</w>
ba sel</w>
. .
er langte</w>
di a</w>
bern hard</w>
ver setzt</w>
meda i
geri ssen</w>
grü n</w>
an fän
räu men</w>
ck el</w>
ent um</w>
bel gien</w>
fran ç
ta gs</w>
war f</w>
dör fer</w>
halb finale</w>
ro l</w>
ar men
pati enten</w>
gut s
ähn liche</w>
blü ten</w>
jähri ger</w>
europameister schaft</w>
k lin
di ri
kon zi
einwohner zahl</w>
ri es
geb .</w>
ver schw
produ zent</w>
archi v</w>
kriegs ende</w>
benachbar ten</w>
li tz</w>
gesetz ten</w>
19 20
hö l
fertig gestellt</w>
b ör
ul rich</w>
ku pp
gr un
c lo
kon zentr
ort schaften</w>
pla y
e f</w>
desig n</w>
ter min
stu dent
c d</w>
analy se</w>
ameri ka</w>
klein eren</w>
wohn ung</w>
zu stellen</w>
win kel</w>
salz burg</w>
g g
auf trit
me yer</w>
errich ten</w>
pa pi
m é
aus stattung</w>
bran d
kti ven</w>
deta il
fi scher</w>
pp er
kani sche</w>
leicht athle
geri et</w>
erfol gen</w>
hie ß</w>
g ter</w>
.. .</w>
be zogen</w>
di ö
ver größ
mode ll
to m</w>
a vi
da y</w>
über gang</w>
sa gte</w>
ur m</w>
wechsel t</w>
ri o</w>
geb o
be waff
p han
franc is
baden- württemberg</w>
mar t
brun nen</w>
zi r
verlu st</w>
è re</w>
compu ter
n den</w>
k ni
18 50</w>
je an-
l ’
land tags
au x</w>
au -
verteidi gung</w>
he f
lo kal
par k
ja zz
ab s.</w>
auß en</w>
0 :
verein bar
f ut
0er- jahren</w>
italieni sche</w>
proje kte</w>
re al
prof ession
ö ch
d .
köl ner</w>
vö gel</w>
universi täts
weiß e</w>
ta s</w>
höch st
schein t</w>
ba d
am t
h es
at h</w>
männ chen</w>
mar ki
verb un
vor kommen</w>
geschi chten</w>
ar ch</w>
vermö gen</w>
r ur
dorf es</w>
frankfur ter</w>
jag d
rei hen</w>
bedeut ende</w>
ger en</w>
au gen</w>
bisheri gen</w>
automo bil
an spruch</w>
en n
prinzi p</w>
fei er
wirtschaft liche</w>
189 3</w>
su che</w>
pf lege</w>
flü cht
m t</w>
steh ende</w>
scheiter te</w>
be fanden</w>
har d
z au
stra hlt</w>
kämpf e</w>
fahr ts
plä tzen</w>
krä f
ne un
al a
leben den</w>
ns da
os lo
li s
haf te</w>
über haupt</w>
st ö
fre u
ger hard</w>
eri ch</w>
widme te</w>
au ton
al a</w>
ver zeich
ver handlungen</w>
besteh enden</w>
archite kt</w>
pier re</w>
ber s</w>
ga li
prie ster</w>
sa chen</w>
j or
fahr ten</w>
í n</w>
gen er</w>
the ore
km /h</w>
et ts</w>
vor bild</w>
hän dler</w>
at hl
ge sich
be geg
brasi lien</w>
sied lungen</w>
sti r
sch mu
ver geben</w>
än den</w>
f rän
brasi li
the odor</w>
e ck</w>
charakter isti
kandi daten</w>
kor d</w>
hü gel</w>
188 0</w>
187 0</w>
vol k</w>
ausge führt</w>
allgem eine</w>
ziel e</w>
unter gebracht</w>
f eri
grie chen
sozi ale</w>
ch i</w>
and a</w>
schwei z
kin o
p har
gra phi
ba y</w>
entsprech enden</w>
po kal
tz t</w>
organi siert</w>
for scher</w>
e b
part ner
har dt</w>
fest ung</w>
char lo
mb le</w>
christ lichen</w>
kar i
wu chs
schlä ge</w>
ha i
verk auf</w>
erschi en
ro h
bin dung</w>
schleswi g-
fe li
mau ern</w>
kompl ett</w>
fort an</w>
volks zählung</w>
k n
schwer e</w>
sen at</w>
ch se</w>
maxi mili
i ce</w>
fran zo
189 2</w>
forder te</w>
arti ll
n el
kauf te</w>
at uren</w>
al ko
w elle</w>
produ zierte</w>
rin gt</w>
t um</w>
zi erten</w>
smit h</w>
har moni
ma sse</w>
ni em
ka pazi
distri kt</w>
akti onen</w>
getö tet</w>
dor t
e p
n s-
näch ste</w>
re d</w>
zeit genössi
ges ang</w>
sü do
kol le
se ba
nachbar gemeinden</w>
a ktion</w>
flugzeu g</w>
el a</w>
ru ms</w>
c c
geb rauch</w>
gefän gnis</w>
schi ffen</w>
er zählt</w>
lauf enden</w>
di ag
skul p
ra il
er krank
pro t
gi eren</w>
ver mi
san kt</w>
schrei bt</w>
v ä
a x
fün ften</w>
mol e
lat ein
notwen dig</w>
ur kunde</w>
drit t
ai ss
me t</w>
psy chi
haf en
sa al</w>
ba cher</w>
d t.</w>
scho t
dür fen</w>
ad minist
e der
ursprün gliche</w>
schä den</w>
wich tigen</w>
sch win
pe st</w>
brin gt</w>
gebro chen</w>
vorsitz enden</w>
ehem als</w>
ge benen</w>
kombin ation</w>
ver le
erkenn t
schwar ze</w>
188 5</w>
189 4</w>
al es</w>
lux em
fi schen</w>
geru fen</w>
förmi gen</w>
spiel klasse</w>
jo achim</w>
aus wär
bei träge</w>
y u
su cht</w>
to des
schleswig- hol
ck ten</w>
t än
ta be
sti ft
rhein land-
rit u
b i</w>
lo w</w>
g na
w ün
inter vie
hier zu</w>
da u</w>
188 8</w>
wun sch</w>
sk ri
kom mer
über setzung</w>
schlo ss
t renn
ch -
üb lich</w>
lager t</w>
ver teilung</w>
konz erte</w>
kt es</w>
isra el</w>
o ff</w>
viel zahl</w>
krank heit</w>
militä rischen</w>
ges u
zeit lich</w>
v f
ant ar
gewer be
tel ef
abgeord neten</w>
könig lichen</w>
m men
argent ini
schaf fung</w>
s no
z te</w>
wissenschaft licher</w>
grei fen</w>
austra li
zi elt</w>
v el</w>
um gebaut</w>
ma chten</w>
er li
schö pf
for mel</w>
ty pen</w>
c ru
bur gischen</w>
ball -
ban k
versu che</w>
mexi ko</w>
ab stand</w>
fuß ball</w>
bi gen</w>
b lin
188 9</w>
muse ums</w>
verfü g
lö sen</w>
parti en</w>
te am
i o
zü gen</w>
aus ch</w>
ologi sch</w>
or gel
t auf
oll en</w>
zü glich</w>
zen ten</w>
nü pf
prie ster
ma ßen</w>
aus gebaut</w>
le m</w>
sch li
zw an
bü hnen
par ty</w>
haf ten</w>
auf treten</w>
stu die</w>
gebir gs
schü tzen</w>
pre sse</w>
wur zel
verwen dete</w>
kapi tä
zuschau er</w>
boo te</w>
be standen</w>
k y</w>
unterschei det</w>
8 -
stat es</w>
veränder ungen</w>
journali st</w>
sy na
an a
trotz dem</w>
alex and
men sch</w>
gewöhn lich</w>
napol e
hö he
ch el
band s</w>
am tes</w>
lau b
st rau
e p</w>
st um
ei ster</w>
e k
r ati
gescho ssi
kün ste</w>
189 1</w>
oslo wa
ab end</w>
kapitä n</w>
hei t
ro hr
tschech oslowa
staat liche</w>
do ktor
streit kräfte</w>
bri tischer</w>
sei tig</w>
sp ur
o ster
ge weiht</w>
seri en
ini a</w>
ge denk
f au
har t</w>
di plo
bek ämpf
p he</w>
geh enden</w>
4 .
f d
mon at</w>
entsprech ende</w>
ne ss</w>
fei erte</w>
mittl ere</w>
welt cu
jur isti
wer ks
besu cher</w>
überra sch
ti me</w>
di ger</w>
welt meister</w>
or dens</w>
se -
c tor</w>
com mun
ingeni eur
de ssel
ger ung</w>
fel s</w>
tem pel</w>
differ en
f r
inn ere</w>
auftrit te</w>
versi onen</w>
letz tlich</w>
wes halb</w>
wol f</w>
verbrei tung</w>
wet ter
sim on</w>
to p</w>
i ii</w>
inte gr
milli ar
lok alen</w>
pfar rei</w>
sti pen
hol m</w>
le gende</w>
entfern ung</w>
ge langte</w>
mus li
sta bili
kon rad</w>
ei cht</w>
politi k
dessel ben</w>
por tal</w>
wä ss
r ein</w>
gi a</w>
ad mi
se mi
edu ard</w>
unterstütz te</w>
bei spiele</w>
portu gal</w>
hi gh</w>
nah me
kat har
ba siert</w>
te st</w>
privat en</w>
ju gosla
verbrei tungs
mün chner</w>
ks am</w>
glie derung</w>
fel s
sin gen</w>
nor wegen</w>
soft ware</w>
gun sten</w>
h ur
at oren</w>
stre et</w>
bei gesetzt</w>
ta in
be an
exi sten
ver film
deutschsprachi gen</w>
berat er</w>
klini k</w>
spitz en
nä mlich</w>
186 0</w>
tran sport</w>
lehn te</w>
c ali
hy dro
hun dert</w>
verhaf tet</w>
bre m
li sten</w>
j on</w>
fäl lig</w>
am ster
oni en</w>
ge sprochen</w>
zeit schriften</w>
fran ken</w>
institut s</w>
we gs</w>
befeh l</w>
le e</w>
nach gewiesen</w>
kal k
b le</w>
schi chten</w>
gra mm
kont rol
samm lungen</w>
m and
tun nel</w>
besonder en</w>
g ori
sso ur
re siden
dar stell
sä ure</w>
lich erweise</w>
ar thur</w>
mathemati k</w>
ch ur
braunschwei g</w>
diö zes
wa gen
kommer zi
bü chern</w>
sk el
prin z</w>
mau er
vergan genheit</w>
e z</w>
e si
la i
in t</w>
re u
schil d</w>
ro ad</w>
ta ges</w>
rech te
wi s
186 6</w>
ri en</w>
p um
denkmal geschütz
wen det</w>
unterschie den</w>
voll en</w>
verstär kt</w>
w m</w>
bi t
tro pi
zwei er</w>
187 4</w>
in i</w>
sp uren</w>
sol chen</w>
konz ert</w>
juli us</w>
l ein
c tion
temper atur</w>
er a</w>
tour ne
lin ger</w>
erwä hn
2 50</w>
gott es</w>
k ungen</w>
gesetz es</w>
m und
bru ck</w>
mar ken
erfahr ungen</w>
kommande ur</w>
be handelt</w>
nationalsoziali smus</w>
ber gs</w>
é e</w>
ver ordnung</w>
drit ter</w>
i i
schwi mm
6 -
komö die</w>
naturschutz gebiet</w>
geno ssen
bezieh t</w>
p fi
ge zogen</w>
gen heiten</w>
et -
ell i</w>
lau tet</w>
ach se</w>
proze ss
prote stan
gebi ets</w>
aus gaben</w>
li erten</w>
tre ff
ka ssel</w>
am a
ri ss</w>
1 20</w>
zu kunft</w>
st em
be her
mer km
187 5</w>
sp al
sch rau
be ur
komple x</w>
ehr en</w>
blo ck
diszip lin
la di
schla gen</w>
her bert</w>
war ds</w>
an k
gebur t</w>
rei hen
kin d
kla ssen
to wn</w>
ent u
tür kischen</w>
ol e</w>
y n
m ör
hier für</w>
ali smus</w>
7 00</w>
pri vate</w>
ord nete</w>
st eigen
v i</w>
an th
a spe
ter t</w>
kl ar
kriti ker</w>
gerech net</w>
shi re</w>
unter lag</w>
aner kennung</w>
ge sp
be für
bar bar
für sten
vorsitz ende</w>
gre ssi
hand lungs
veranstal tung</w>
aus reich
vi .</w>
schni tte</w>
stei ger</w>
justi z
er worben</w>
einge gliedert</w>
aus zeichnung</w>
schnit ts
u p
eigen er</w>
erhö ht</w>
ed ward</w>
g ner</w>
stu fen</w>
po ts
y e</w>
dür f
kapi tel</w>
4 0
an i</w>
ni er</w>
hil l</w>
j ener</w>
del n</w>
öffent lich</w>
ger e</w>
tu n</w>
jür gen</w>
prü f
fin n
vi sion</w>
187 9</w>
k u</w>
ge fe
ein erseits</w>
geb ü
dä nischen</w>
olympi a
umfan g</w>
ense mble</w>
mo u
beschlo ssen</w>
b rä
verfü gte</w>
bla ck</w>
er re
186 7</w>
ge hei
ani e</w>
werk zeu
kor e
y m</w>
ri sch</w>
t üb
gi gen</w>
ho fen</w>
kno ten</w>
europameister schaften</w>
la -
erklär ung</w>
spezi ell</w>
sam en</w>
er möglichen</w>
letz ter</w>
sü d</w>
rei s</w>
wal l</w>
ra y</w>
to s</w>
hu t</w>
thür ingen</w>
spar tei</w>
sie gen</w>
ge leitet</w>
nom ini
po st</w>
besteh ende</w>
be endet</w>
188 7</w>
möglich st</w>
ka sse</w>
sti ch
k rau
lei sten</w>
francis co</w>
bu dd
ein deu
be gründer</w>
y e
tan z
f fi
erweiter ung</w>
b auf
di sch</w>
sch mer
fun gierte</w>
strä ger</w>
niederlan de</w>
defin iert</w>
e au</w>
beglei tet</w>
ausge strahlt</w>
st el
be cker</w>
er mitt
geb rau
sch mal
dien ten</w>
änder ungen</w>
ge tro
ti rol</w>
dur fte</w>
verteidi gungs
c en</w>
z oll
the mati
anhän ger</w>
entsteh ung</w>
gebiet s
erwä hnung</w>
co de</w>
e del
größ er</w>
ein st</w>
würz burg</w>
leu cht
gebäu den</w>
flugzeu ge</w>
ober liga</w>
kol um
ar tige</w>
ge dreht</w>
off enen</w>
w ein</w>
he er</w>
unterneh mer</w>
mi ert</w>
geschä fte</w>
b rücken</w>
fl am
restau ran
get rie
r er</w>
la ss
ja c
mar ath
st y
v s</w>
rhy th
akti ve</w>
bekann testen</w>
kamer a</w>
fran zi
gitar ri
en en
grundsätz lich</w>
teil ungen</w>
188 6</w>
ar m</w>
tex as</w>
op ern
187 2</w>
193 0er</w>
ja ck
at or
vari anten</w>
dan k</w>
a dre
krei sen</w>
tüb ingen</w>
mein ung</w>
qu ert</w>
ko ali
si r</w>
shi p</w>
militä rische</w>
se es</w>
jos é</w>
hö her</w>
dra ma</w>
a ber
ab gerissen</w>
le t</w>
re par
188 4</w>
se kunden</w>
entwickel ten</w>
nord -
pen n
di ale
kraft werk</w>
20 -
j i</w>
sch na
europ as</w>
debü tierte</w>
ch em
drit tel</w>
glau ben</w>
min ute</w>
ägyp ten</w>
ma c
r ent
i so
lini en
mann -
w ri
cast le</w>
hor n
il li
frü here</w>
verbo ten</w>
wä hlt</w>
wo mit</w>
her stell
son st</w>
enga gement</w>
brü ck</w>
angeb racht</w>
staf fel
kirchen gemeinde</w>
tran sport
ge mark
ent al</w>
flu sses</w>
besatz ungs
geschi chts
haupt rolle</w>
szen en</w>
j ör
entwickel n</w>
ge ographi
ur a</w>
beeinflu sst</w>
lief erung</w>
abhängi g</w>
einflu ss
ingeni eur</w>
welt cup</w>
ti c</w>
hau t</w>
ab en
bau werk</w>
b an</w>
187 3</w>
verstän dnis</w>
kabin ett</w>
for derung</w>
du stri
ei ls</w>
expedi tion</w>
geschäfts führer</w>
bil dern</w>
ca p
be ein
be grenzt</w>
s äu
zusätz liche</w>
stär ker</w>
o w
ben s</w>
2 ,5</w>
mehr mals</w>
188 1</w>
asi en</w>
st ra</w>
buch st
10 .000</w>
dokum en
um fass
ständi ger</w>
mar sch</w>
bein hal
griechen land</w>
nsda p</w>
186 8</w>
nieder sachsen</w>
vir g
standar d
syna go
änder te</w>
ein sätze</w>
komponi sten</w>
o c
stand ard</w>
men gen</w>
bu cht</w>
ge fär
junior en
beschlo ss</w>
ukra ine</w>
erlau bt</w>
bau reihe</w>
en ter
ge -
wähl te</w>
pa ss</w>
vorgän ger
veröffentlich ten</w>
an at
gi r
aa chen</w>
í a</w>
bran den
vor bei</w>
a dam</w>
188 2</w>
f äch
m r
mon um
spann ung</w>
fe ste</w>
mana ger</w>
pl ö
kade mie</w>
do zent</w>
in schrift</w>
hl er</w>
kon kre
kommunik ation</w>
de cke</w>
h us
ein zel</w>
niederlan den</w>
un fall</w>
mor gen</w>
ges and
sti l
bo s
glü ck
r ation</w>
west liche</w>
wo i
vi et
gesch ni
ter ra
d f
cor ps</w>
region alen</w>
verlei hung</w>
gebau ten</w>
dies mal</w>
al brecht</w>
sol cher</w>
wichtig ste</w>
ko s
errich teten</w>
ver ändert</w>
unabhängi gkeit</w>
stü ck
en gel
re formi
nah en</w>
ven e
tur m
an sicht</w>
eu -
o is</w>
um -
mar sch
führ ende</w>
dar steller</w>
ste men</w>
verfol gung</w>
w ellen
fran ce</w>
nicht -
ta in</w>
un s</w>
zugän glich</w>
p tion</w>
geschlo ssenen</w>
spiel s</w>
mar y</w>
gew andelt</w>
ci o</w>
alb ums</w>
son s</w>
et hi
ce ae</w>
sch sprachi
gew annen</w>
besatz ung</w>
st or</w>
bi le</w>
au to</w>
b äu
meister titel</w>
er be</w>
ste urop
wehr macht</w>
gele gen</w>
gal erie</w>
geri cht
magde burg</w>
15 00</w>
ludwi gs
m p
grei f
enga gierte</w>
s af
zi vi
ak zep
ber gischen</w>
benö tigt</w>
wechsel n</w>
geb lieben</w>
feh ler</w>
ko s</w>
schiff s
188 3</w>
tö chter</w>
ab tei</w>
p é
über nehmen</w>
wer be
v p</w>
for mel
ber eit</w>
sp run
en ce</w>
bor d</w>
wer ten</w>
tradition ellen</w>
o st</w>
verur sa
sch el
bildhau er</w>
erfol gten</w>
h m</w>
schließ ung</w>
187 8</w>
mi sch</w>
se me
lan gen
fra g
hö hle</w>
jünger en</w>
k p
yo u</w>
be tä
säm tliche</w>
so r</w>
förmi ge</w>
ti k
ali sierung</w>
ben den</w>
alt stadt</w>
li stet</w>
in spi
ruhe stand</w>
sich erung</w>
se chs
aussa ge</w>
o ffen</w>
zeit ungen</w>
ma dri
einge weiht</w>
ka s
li erung</w>
inter net</w>
to chter
h ori
gewä hl
ergän zt</w>
betrei bt</w>
ne ck
sla u</w>
gel b
ren aiss
dire kte</w>
eigen ständige</w>
plän en</w>
scho tt
fun da
war en
c tur
gel en
pro pa
ausschu sses</w>
moder ni
län ger</w>
schi ck
sta hl</w>
sk op
kandi dat</w>
bla u</w>
re tt
mo bili
ereig nisse</w>
sph äre</w>
man che</w>
fernseh serie</w>
ges eh
gi ge</w>
sa s</w>
rei ste</w>
über setzt</w>
schmi e
re -
ver ste
neu stadt</w>
mor d</w>
erfolg reichen</w>
ho spi
sat elli
prä fe
gol denen</w>
la ss</w>
konkurren z</w>
fest gelegt</w>
werk statt</w>
rü stung</w>
su chen</w>
ortho do
me m
pi oni
gr äf
an geschlossen</w>
ti ve</w>
187 6</w>
5 .000</w>
spezi al
tren nung</w>
prei se</w>
han s-
cour t</w>
exempl are</w>
hr ung</w>
ge gangen</w>
ein sätzen</w>
arbei tern</w>
ju gen
hö hen</w>
be halten</w>
erheb lich</w>
re formation</w>
sp re
bestimm ung</w>
veröffentlich ungen</w>
ci s</w>
ost -
k em
ven edi
er satz
zwei g</w>
werk es</w>
0 4</w>
un a</w>
d r</w>
unterschied lich</w>
ti us</w>
fahr t
be kommen</w>
mu ster</w>
student en
karls ruhe</w>
g ör
ste fan</w>
186 1</w>
klassi sche</w>
ran g
wich tiger</w>
hom o
ran d
anerk annt</w>
er innen</w>
n ing</w>
de part
beteili gten</w>
00 .000</w>
ungs -</w>
hr en
ehr t</w>
verlänger ung</w>
fahrzeu gen</w>
li m
ch ol
hes sischen</w>
gestal t</w>
or dens
wäl der</w>
dustri e</w>
bahn -
bre chen</w>
ungar ischen</w>
wiederhol t</w>
so fern</w>
höhe punkt</w>
ham mer</w>
tä glich</w>
tie f</w>
te stam
18 15</w>
bar on</w>
t v-
üb te</w>
ss eur
be t</w>
in fra
re fle
nach folge</w>
a ster
de hn
passa gi
a kt</w>
ver mei
sor gte</w>
0er- jahre</w>
aus bruch</w>
gi scher</w>
no ch
p hen
beschä digt</w>
pa ar
offen bar</w>
ni ve
gä ste</w>
olo gy</w>
stur z</w>
ch em</w>
beteili gte</w>
brie f
regi stri
erhe bung</w>
mat thi
in dischen</w>
hän gen</w>
co .</w>
ste ten</w>
kan ten</w>
versu chen</w>
ster ben</w>
re t
rö mische</w>
fl ö
pf äl
st unde</w>
bach el
sp or</w>
ver wun
schwieri gkeiten</w>
lei ch
woi wo
vor gestellt</w>
bro chen</w>
h all
ge we
be bau
alt ar
for ce</w>
wor t
5 .
ta belle</w>
mittel punkt</w>
s- universität</w>
186 5</w>
hu go</w>
ons hi
ab stieg</w>
besch lu
la st
mm et
er ung
m eh
chi rur
hei de</w>
th ur
nationalsoziali sten</w>
al pen</w>
er fin
amster dam</w>
fö der
g ni
bu d
kana dischen</w>
kti vi
diver se</w>
darm stadt</w>
neh mer</w>
vo gel</w>
st o</w>
f und
verletz ung</w>
vorgän ger</w>
franzo sen</w>
di sser
intere ssen</w>
186 9</w>
be s
dar stellungen</w>
g lat
org an</w>
schle sien</w>
konfli kt</w>
ministeri ums</w>
aktu ellen</w>
rie benen</w>
beher ber
186 4</w>
pre sse
gitar re</w>
bra chten</w>
begriff s
schütz en
koloni e</w>
6 .
bronze medaille</w>
über liefert</w>
k in</w>
li us</w>
a e
p .</w>
gen der</w>
ka i
religi on</w>
le hen</w>
et c.</w>
na ss
gewä sser</w>
in gs</w>
ty ps</w>
nation en</w>
186 2</w>
teil ten</w>
e po
0 5</w>
gebur t
nach richt
rumä nien</w>
ausge bildet</w>
bi ografi
a gent
be ck
san g</w>
feh len</w>
ein s</w>
h ten</w>
spiel tag</w>
betro ff
verb lei
spl atz</w>
bot schafter</w>
premi ere</w>
studi os</w>
be dürf
um fa
s u</w>
kauf t</w>
inn s
184 9</w>
mag ne
bei trag</w>
instru ment
augs burg</w>
v als</w>
produ kt</w>
din gen</w>
di s</w>
us- repräsentantenhaus</w>
mei stens</w>
ver wei
ge langen</w>
be fehl
j o</w>
rat haus</w>
ab wehr
c m
antoni o</w>
ari sche</w>
u .
g ür
spun kt</w>
at hen</w>
vertre tung</w>
ro ber
bi e
w on
gi o</w>
unterneh mens
syn chron
stadt gebiet</w>
regi sseur
mög liche</w>
dreh buch</w>
f ts
str al
a qu
kur s</w>
ver teilt</w>
heimat stadt</w>
1920 er</w>
mat ri
e cke</w>
kämpf te</w>
h ungen</w>
bo ard</w>
cht en
ver mehr
ru m
le sen</w>
dar stellt</w>
paris er</w>
n ul
in gs
gra z</w>
ten berg</w>
bezir ks</w>
ger ingen</w>
sitz e</w>
italieni scher</w>
spiel ern</w>
ser vice</w>
quarti er</w>
fall e</w>
stam m</w>
hän gt</w>
fahrzeu g
äm ter</w>
h le
verlänger t</w>
i eren</w>
evangeli sch-
betre u
parlament s
progra mme</w>
gr ö
gemeinder at</w>
ur u
d rü
kontin ui
fei er</w>
eigent lichen</w>
ph on
ent gegen</w>
un e</w>
r ho
b é
bundes straße</w>
geh ende</w>
jen a</w>
pol nische</w>
187 7</w>
ell o</w>
gl es</w>
bad min
inter net
sen de</w>
d ney</w>
eisen bahn</w>
be er
ab kür
mittelalter lichen</w>
milliar den</w>
maxi mal</w>
dyna stie</w>
arbei teten</w>
tre u
bron ze</w>
n de</w>
phi a</w>
and r
zen den</w>
könn ten</w>
grün de</w>
sch re
gan z
foot ball</w>
kauf mann</w>
schnei der</w>
aus bildungs
männ ern</w>
ann i</w>
maß geblich</w>
in se
aussa gen</w>
bezir ke</w>
ma sk
dire kten</w>
rei chte</w>
su i
vor stands
ung lü
cor por
a da</w>
da d</w>
e. v.</w>
gesetz e</w>
k .
ler nen</w>
kor ea</w>
gebau te</w>
he dr
m ers</w>
einfa chen</w>
sy mmet
anti ke</w>
ir land</w>
hy po
be züglich</w>
in g-
tz -
vic tori
weih nach
unter teilt</w>
to u
haupt mann</w>
verstor benen</w>
rich tete</w>
we stern</w>
a ar
e c
hel mut</w>
gei st</w>
ab gele
über geben</w>
par all
go s</w>
äuß eren</w>
ren o
met er-
studi ums</w>
ung sin
che f
h ut
gh am</w>
briga de</w>
west fä
to ten</w>
me sse</w>
diag no
em eri
ar gum
gen ü
kti schen</w>
land gemeinde</w>
us al
alli ierten</w>
geb unden</w>
ex plo
verab schie
man dat</w>
fir men</w>
h är
stu ft</w>
t u</w>
disk u
syl v
a xi
siedel te</w>
provin zen</w>
ge omet
blo ck</w>
ja ck</w>
sto ffen</w>
ge zählt</w>
w ände</w>
on line
bedeutend sten</w>
frei er</w>
kommen den</w>
ge schaffen
jur ist</w>
t um
gel än
gefangen schaft</w>
instru ment</w>
lief erte</w>
di r
mor e</w>
land kreises</w>
he bung</w>
jap anische</w>
hi mmel
bewe gungen</w>
drei mal</w>
th en
ri a</w>
denkmal schutz</w>
angeb lich</w>
t zi
oni a</w>
n ern</w>
o v</w>
schaf f
fir men
wä ch
vert rieben</w>
ro stock</w>
stü cken</w>
i sten</w>
ar tigen</w>
rechts anwalt</w>
ge o
to wn
apo sto
auf sichts
k af
größ tent
hl .</w>
sig na
angri ffe</w>
größtent eils</w>
gen om
bu da
tre ffer</w>
re zep
kata stro
bischof s
pre ss</w>
zw ungen</w>
se en</w>
ur teil</w>
ei s</w>
bar cel
stor ben</w>
ad o</w>
be ll
beoba chtet</w>
ha ar
sse e</w>
ha w
angele genheiten</w>
s he
übertra gung</w>
k ut
südafri ka</w>
c er</w>
jä ger</w>
ge fördert</w>
em an
süd west
ru ine</w>
ban ken</w>
na m</w>
k eh
st s</w>
le xi
tä t
o ze
ge t</w>
ssen den</w>
ru hr
bo ston</w>
ha y
wer ft</w>
in stal
al i</w>
unter nahm</w>
an teile</w>
bre slau</w>
ga st</w>
bei der</w>
jer usal
ein stellung</w>
archi e</w>
ele c
studi o
“ -
aus führung</w>
spezi elle</w>
jahrzehn ten</w>
ge teilt</w>
c au
18 00</w>
national park</w>
á n
unter stellt</w>
verb rau
er lebte</w>
186 3</w>
lo ch</w>
dreißi g
ste ph
untersu cht</w>
lei den</w>
unterstütz en</w>
ar ds</w>
na men
win d</w>
vide o
sk am
mau ri
alter s
e wi
bi schen</w>
bel s</w>
ge lehr
ti a</w>
la dung</w>
der ten</w>
nachricht en
n ers</w>
verband s
gru be</w>
champi onshi
tem pel
unter schrieb</w>
verk ün
lü beck</w>
aufge geben</w>
mo di
region ale</w>
fähi g</w>
urspr ung</w>
kom position</w>
typi sche</w>
bel l</w>
ent in</w>
ortstei le</w>
ck el
le hnung</w>
komp et
ba l</w>
nutz te</w>
sicht bar</w>
bel n</w>
ar t
et h</w>
em s</w>
auf stand</w>
li ve</w>
gär ten</w>
wit we</w>
m on</w>
an halt</w>
ver letzt</w>
ne a
vermu tet</w>
lin gt</w>
lin ke</w>
haus halte</w>
ameri kaner</w>
wür fe</w>
7 .
er eien</w>
premier minister</w>
ba ck</w>
schwe stern</w>
qu ell
pflan ze</w>
frem d
ker ami
k ein
sa -
cht ungen</w>
einfa che</w>
um bau</w>
rheinland- pfalz</w>
vi ll
ra te</w>
na vy</w>
m ²</w>
dort mund</w>
ba t</w>
eigentü mer</w>
verbin dungs
pp i
an wesen</w>
promo tion</w>
ro se</w>
to -
eingemein det</w>
o se</w>
mann heim</w>
steu erung</w>
misch ung</w>
lor d</w>
i stan
g i</w>
gebäu de
p s
z wer
kat hedr
un bekannt</w>
0 1</w>
qu in
e c</w>
hei lige</w>
bur y</w>
re se
co ver
ab gelöst</w>
hum ani
g ation</w>
os car</w>
v ali
bürger schaft</w>
erforder lich</w>
pa gne</w>
en ne</w>
t rieben</w>
existen z</w>
00 -
mi ll
kti oni
ständi gkeit</w>
off s</w>
sie gte</w>
ä her
colum bia</w>
gl .</w>
k eller</w>
trä gen</w>
plö tz
be au
at tra
regional liga</w>
materi alien</w>
p hän
ko hle</w>
au di
ation s</w>
o ut
sse kre
b ren
organi sierte</w>
p elt</w>
tschechi en</w>
zeu gen</w>
aufent halt</w>
for mat</w>
k rü
ge stellten</w>
bewus st
geri chts</w>
den d</w>
d or</w>
besch rieb</w>
stei gt</w>
son ne</w>
durch schnitts
dy nami
venedi g</w>
si scher</w>
revolu tion
tur n
virg inia</w>
fla ch
fe sten</w>
pa sst</w>
burg h</w>
außer ordent
ver einen</w>
grün deten</w>
don au</w>
penn sylv
nahr ungs
dom in
kin os</w>
hal t
rück tritt</w>
so ut
wal es</w>
moun t</w>
rei ter</w>
umst ritten</w>
o ch
korre spon
di en</w>
kehr en</w>
völk er
fü ll
m am
positi v</w>
lo ve</w>
vorhan denen</w>
ter n
fla gge</w>
spani sche</w>
festi vals</w>
e u</w>
leop old</w>
er lo
wäch st</w>
willi ams</w>
integri ert</w>
k är
o ft
na u</w>
hal ter</w>
fü gt</w>
so u
d äch
ta kt</w>
ent gegen
my th
tabe llen
preußi sche</w>
by z
tz ent
ci l</w>
st one</w>
kenn zeichnet</w>
bä ume</w>
be grenz
sh i</w>
li fe</w>
ge wich
stamm ten</w>
mensch lichen</w>
produ zenten</w>
se gel
person al
ben ennung</w>
kriti siert</w>
he x
ku pfer
li tt
wass erst
dra mati
grab ungen</w>
on al</w>
krä ften</w>
an bau</w>
sa ß</w>
glo cken</w>
4 :
ar -
flugzeu g
ex e
merkm ale</w>
austra lischen</w>
krie ge</w>
ge halt</w>
rechts wissenschaften</w>
nen nen</w>
ord neten</w>
le o</w>
öster reichs</w>
er mittelt</w>
matthi as</w>
um gewandelt</w>
on kel</w>
dem nach</w>
k us
kl am
madri d</w>
co m</w>
er lich</w>
le uni
mi en</w>
na m
i ll
man s</w>
woll ten</w>
kli ma</w>
bezeich nungen</w>
än dern</w>
bor g</w>
ba ss</w>
aus strahlung</w>
kur zer</w>
kl eines</w>
si li
gan gs</w>
religi ons
aktu ell</w>
heraus ra
ver zwei
besch leuni
ti sch
nun mehr</w>
jo e</w>
sie b
ra i
clu bs</w>
umfang reiche</w>
sa al
184 0</w>
deu tet</w>
gel b</w>
par am
französi sch</w>
ver rin
ar t.</w>
ari a</w>
jon es</w>
schei d</w>
gewöl be</w>
sch te</w>
da -
we ster
seba stian</w>
säul en</w>
herr scher</w>
auf merk
fen ster
krimin al
entsp ringt</w>
vor stellungen</w>
be dient</w>
missi on
mediz inischen</w>
an forderungen</w>
ober st</w>
ach us
h allen
semin ar</w>
ge fertigt</w>
vi eh
a cker
mass achus
wei sung</w>
saison ende</w>
ör tlichen</w>
wilhel m
öff net</w>
barbar a</w>
redu ziert</w>
kla vier
ci al</w>
dru ckt</w>
disser tation</w>
lo ck
ähn lichen</w>
e ast</w>
bedeut enden</w>
k einer</w>
180 6</w>
wohn ungen</w>
zu cht</w>
er geben</w>
auf en</w>
zerstör ung</w>
nikol aus</w>
von einander</w>
ele ment</w>
ö l</w>
um setzung</w>
be zahl
der selben</w>
185 6</w>
ten en</w>
u d
wachst um</w>
lon don
er tes</w>
nor do
qu o
c af
fizi erung</w>
ö k
o hi
ein gebaut</w>
mit ten</w>
hori zon
begriffs klärung</w>
ein sch
don e
zeich nen</w>
diözes e</w>
flori da</w>
formula_ 1</w>
fer tigte</w>
mai land</w>
de li
si gen</w>
meister s</w>
verwen deten</w>
ma ster</w>
si gkeit</w>
et ten
noch mals</w>
barcel ona</w>
di ni
da me</w>
aufge teilt</w>
zentr en</w>
schü ler
schie ds
ausge wiesen</w>
ka -
arabi schen</w>
gott fried</w>
politi scher</w>
caro lina</w>
ka st
mm er</w>
sich erte</w>
hit ler</w>
c um
kar l-
servat orium</w>
mar tin
en ge</w>
grün e</w>
cki gen</w>
ge ändert</w>
ma s
8 .
tru gen</w>
ati v
min e</w>
tha i
ant rieb</w>
innen stadt</w>
star tet</w>
koor din
a gr
met al</w>
viertel finale</w>
th in</w>
ver standen</w>
erschein ung</w>
a se</w>
fo ssi
parti e</w>
versich erungs
kon f
sitz en</w>
massachus etts</w>
gen utz
e an</w>
c z</w>
langs am</w>
be at
fi sch</w>
di eter</w>
kli ma
lo y
emi l</w>
bil l</w>
sen den</w>
ver mitt
gemark ung</w>
zu gunsten</w>
muni ci
synago ge</w>
berei t
pennsylv ania</w>
ck y</w>
arn old</w>
er es</w>
kapazi tät</w>
an son
us w.</w>
ka t</w>
pre ss
har ry</w>
cam p
ef fizi
185 9</w>
natür lichen</w>
ver dienste</w>
enga giert</w>
sti li
pf er</w>
üb lichen</w>
chri sti
qu a
of fi
al pha
h s</w>
bist ums</w>
schei den</w>
ri k</w>
ju bil
fu sion</w>
verwand ten</w>
ver arbeitung</w>
erzeu gt</w>
äu se</w>
pe ti
entdeck te</w>
origin al</w>
7 -
st un
e a
haupt ort</w>
glo cke</w>
jünger e</w>
an wesen
viel mehr</w>
un er
ab weich
genom men
rä der</w>
ver zeichnet</w>
finanzi ellen</w>
pseu don
erober ung</w>
gesch ehen</w>
al pen
dati ert</w>
bahn stei
ver folgt</w>
p t
uru gu
he ben</w>
besu cht</w>
et on</w>
öst liche</w>
bi ge</w>
oft mals</w>
wich tig</w>
nach hal
mi et
profess ur</w>
su ch
fron t
verb ün
sa li
ro s
tal er</w>
ei l
aktu elle</w>
pri x</w>
persön lichen</w>
so und
vi o
leip ziger</w>
kin s</w>
anschließ enden</w>
ra ke
amerikani scher</w>
gewi d
si us</w>
ta y
wal de</w>
a pe
z elle</w>
em a</w>
nach wuchs
an ne
frü chte</w>
da mm</w>
lei stete</w>
l erin</w>
g läu
ge lassen</w>
koloni al
beri chten</w>
d rin
elekt rische</w>
e e</w>
spä te
mediz in
beschlu ss</w>
anson sten</w>
bo ch
fer tigung</w>
jeni gen</w>
lei b
einzu gs
abkür zung</w>
vor über
star ben</w>
v ard</w>
schott land</w>
no is</w>
i ma
mü ll
der er</w>
jubil ä
mö chte</w>
aust ausch</w>
gegen wär
ober sten</w>
woiwo dschaft</w>
hin ein</w>
geschä tzt</w>
zuge lassen</w>
jag d</w>
be siedelt</w>
späte stens</w>
k ord
si chten</w>
is -
empf in
b m
de ck</w>
al um
net en
er häl
ermor det</w>
se par
v ati
psych ologie</w>
erhäl tlich</w>
star s</w>
aster oi
ur sache</w>
z ol
all gemein
ro mani
durch setzen</w>
ev a</w>
ver fahr
mo bil
kl et
vi zem
eri scher</w>
altern ative</w>
z ern</w>
ja pan
bu l</w>
er rang</w>
ei sen</w>
em pi
lei ten</w>
s han
di stanz</w>
ju an</w>
unterrich tete</w>
gerü stet</w>
zent rums</w>
ten s</w>
re y</w>
h on</w>
moti v</w>
zusammenge fasst</w>
unter brochen</w>
dun kl
u hr
sper re</w>
ver lief</w>
gerin ge</w>
blä ttern</w>
sa ge</w>
inter es
ter -
progra mmi
me ssung</w>
stie gs
süd liche</w>
gi u
na zi
wäl dern</w>
k ne
ch â
inns bruck</w>
na -
180 3</w>
viel fäl
inform ations
whi te</w>
beri chte</w>
at eli
pi t
ausge prä
sprü che</w>
beam ten</w>
beschrän kt</w>
chen s</w>
eri e
chen er</w>
re ktor</w>
argentini en</w>
sch acht</w>
böh men</w>
histor isch</w>
eigent liche</w>
se ktion</w>
sor ge</w>
durchschnitt lich</w>
wei chen</w>
dau erte</w>
sa r</w>
tur en</w>
pp t</w>
us en</w>
18 30</w>
verwen den</w>
ear l</w>
p ause</w>
grund stück</w>
norda merika</w>
z d
vi ell
ant hr
schlo sses</w>
unterschie de</w>
zugehöri gkeit</w>
poten ti
um feld</w>
rese arch</w>
bot schaft</w>
ko -
bron n</w>
rest lichen</w>
bro wn</w>
zwei tes</w>
territ ori
mar ken</w>
e ss
eigent um</w>
t ing</w>
us d</w>
ho ff</w>
hel fen</w>
sech sten</w>
angehöri gen</w>
pal ast</w>
zu künf
compu ter</w>
batai llon</w>
no t</w>
infanteri e-
herausge geben</w>
af f
süd -
mi r
be st</w>
abgeord nete</w>
fran ken
in o
viell eicht</w>
tat en</w>
ul e</w>
ide en</w>
erfolg reiche</w>
prin zes
buchst aben</w>
mon te
regen sburg</w>
lan z</w>
aufmerk samkeit</w>
mel o
el en</w>
wa i
185 4</w>
go et
an trag</w>
finn land</w>
den z</w>
phar ma
high way</w>
ba chs</w>
a den
ho b</w>
ha se</w>
du is
ul a</w>
königs berg</w>
bl um
auseinander setzungen</w>
th om
geschi ckt</w>
h et
la ch</w>
en hagen</w>
dreißig jährigen</w>
ssen -
g om
akti en
sa x
geben den</w>
di gkeit</w>
seme ster</w>
experi ment
ss r</w>
schie ßen</w>
nive au</w>
par tem
mar ine
architekt ur
5 0
komm ent
ge zwungen</w>
gegen über
ra s</w>
st einer</w>
ca s</w>
spräsiden t</w>
er stellt</w>
pä p
schü lern</w>
peters burg</w>
man gel
bekann ter</w>
ab kommen</w>
hä ft
persön lichkeiten</w>
dür fte</w>
er langen</w>
tür ki
lan z
symbo li
dar stellen</w>
bunde stags
b ein</w>
vor teil</w>
185 2</w>
kin o</w>
gesch en
fa -
ra sch</w>
sen de
185 5</w>
ge dichte</w>
kommuni stischen</w>
thr on
silber medaille</w>
tour ismus</w>
win do
b ände</w>
w ell
ro b
ba de
bundes wehr</w>
ern ennung</w>
tra fen</w>
kon stitu
185 7</w>
ohi o</w>
gegen stände</w>
publik ationen</w>
platt form</w>
lin s</w>
gi ov
u k</w>
sam uel</w>
konz ern</w>
anti ken</w>
natür liche</w>
zwe cke</w>
wol le</w>
sto ßen</w>
viel er</w>
eri sch</w>
win den</w>
p le</w>
wirt schaf
k auf</w>
brau erei</w>
ri scher</w>
at es</w>
diet rich</w>
bau t</w>
dina l</w>
pfle ge
sprin t</w>
pro min
verbreitungs gebiet</w>
religiö sen</w>
beg innen</w>
lich sten</w>
durchschnitt liche</w>
sco tt</w>
ann äher
rett ungs
einge tragen</w>
den t</w>
künstl ern</w>
kla ge</w>
ra mi
dokument ar
syn ony
ti m
gold medaille</w>
a .
kaiser lichen</w>
au ge</w>
voll er</w>
sto ß</w>
feli x</w>
ve get
si ge</w>
präsen tiert</w>
junior en-
) -
da men
in halt</w>
an gen</w>
roman e</w>
schlü ssel
verantwor tung</w>
engli scher</w>
l er-
liber alen</w>
kel n</w>
k ter</w>
bischof s</w>
verletz ungen</w>
sprin gen</w>
jugend liche</w>
eini sche</w>
d '
em e</w>
hel m</w>
es co</w>
lehr stuhl</w>
holl y
üb licherweise</w>
schwei z.</w>
geplan ten</w>
per spe
the o
scien ce</w>
konta kte</w>
ra c
lok ale</w>
typi sch</w>
ł a
z elt</w>
ge lingt</w>
fik ation</w>
ab stamm
ka u</w>
anla ss</w>
sen dungen</w>
aben teu
durch aus</w>
mil ch
l an</w>
wander ung</w>
bekann t
kün digte</w>
kathedr ale</w>
hi ll
185 8</w>
qualifizi erte</w>
ben de</w>
vor stellung</w>
e ver
nörd liche</w>
sch mel
in spe
chri sten</w>
bele u
defini tion</w>
t hal
p ent
plat z
autor in</w>
frän kischen</w>
s lat
pädago gi
get rei
län discher</w>
ten d</w>
schw ein
u ss</w>
kom b
fa ktor</w>
poli s</w>
ta te</w>
gri ff
dreh buch
i u
du -
nach kriegs
ko operation</w>
kanton s</w>
gr unde</w>
ver halten
kan t</w>
schu ss</w>
k oll
eingesch rän
en kel</w>
tri er</w>
st öß
mi cro
wi tten
rech nung</w>
proje kt
effe kt</w>
we ber</w>
ange ordnet</w>
gut es</w>
fer r
typi schen</w>
auseinander setzung</w>
klär t</w>
k us</w>
leben de</w>
re mi
be en
mer -
ele menten</w>
prakti sch</w>
pa pier
ni g</w>
fa ktoren</w>
ausge stellt</w>
de ter</w>
nach kommen</w>
zu lassung</w>
be sei
ein zug</w>
1 1
stat ue</w>
are al</w>
glet scher</w>
auf mer
äuß erst</w>
fertig stellung</w>
ehem ann</w>
er halt</w>
ken s
ab le</w>
gewich ts
gefär bt</w>
aufmer ksam</w>
durch bruch</w>
abgele hnt</w>
ktor s</w>
ge eignet</w>
mar burg</w>
n on
or -
maß e</w>
dienst es</w>
fi e
to ki
com mit
pfer de
wei mar
gol dene</w>
le wi
auf fassung</w>
a wards</w>
ba pti
sch rä
europ ean</w>
stör ungen</w>
beklei dete</w>
bau arbeiten</w>
don au
verk ör
gefähr det</w>
schrei bung</w>
gla d
buda pest</w>
wohn haus</w>
arm y</w>
vers org
gre en</w>
geschütz t</w>
nach weis
ma -
hy d
finanzi erung</w>
o g
schleswig-hol stein</w>
um gesetzt</w>
de fen
li qui
le h
f ok
dire kt
erkenn bar</w>
beauftra gt</w>
tradition ell</w>
sta l</w>
spiel erin</w>
les ungen</w>
man chen</w>
ausge wählt</w>
versich erung</w>
verlu ste</w>
ver anla
unter ge
lin z</w>
ar ran
wieder aufbau</w>
nä her</w>
k z</w>
grä ber</w>
debü t
ge kennzeichnet</w>
te es</w>
tourne e</w>
an stelle</w>
in hal
b ent
besteh end</w>
bezir k
bo y
wel chem</w>
genau e</w>
in haber</w>
berücksich tigt</w>
musika lische</w>
ori schen</w>
sp ur</w>
st enz
tex t
spei cher
185 1</w>
prinzi pi
ta x
he y
la u</w>
hö fen</w>
drück t</w>
rü st
d. c.</w>
p ern</w>
kar dinal</w>
ermöglich te</w>
bewus st</w>
cht es</w>
wurzel n</w>
stad trat</w>
weib liche</w>
s har
sto ß
friedrich -
medi a</w>
hol en</w>
be gründete</w>
gem el
folge zeit</w>
j ut
zu setzen</w>
fähi gkeiten</w>
f rö
kon sequ
gestal tete</w>
in nov
go tischen</w>
getro ffen</w>
region al</w>
kurz zeitig</w>
feuer wehr</w>
länger e</w>
beri chtete</w>
s g</w>
dop pel</w>
kon su
fan ta
v gl.</w>
aus gesetzt</w>
ss ei
er fährt</w>
d ö
pa are</w>
bö den</w>
bot ani
erbau te</w>
s .
symbo l</w>
feh lt</w>
nach richten</w>
re al</w>
re kord</w>
18 13</w>
hin ten</w>
ve y</w>
su per</w>
begrün det</w>
frü he</w>
spie gel
st all</w>
ver zö
brun o</w>
da m
hi mmel</w>
di cht</w>
kathar ina</w>
siedel ten</w>
op hy
abge leitet</w>
ni sses</w>
lin es</w>
sachsen- anhalt</w>
kind heit</w>
d t-
b nis</w>
fa s
aus geschlossen</w>
bau weise</w>
illi nois</w>
n g
gesetz te</w>
at em
184 5</w>
bün dnis</w>
do ktor</w>
zeit lichen</w>
demokrati sche</w>
ta -
a sp
geno ssen</w>
ge arbeitet</w>
entstan denen</w>
ologi scher</w>
sin f
vorberei tung</w>
b rücken
i d</w>
ma d</w>
fra gt</w>
betrei ben</w>
jerusal em</w>
spiel zeiten</w>
off ene</w>
städ te
ober e</w>
vor schlag</w>
le m
gegen wart</w>
pet er
mi erte</w>
ha i</w>
9 .
pho sp
provi s
diver sen</w>
o ’
beinhal tet</w>
20 .000</w>
v á
pots dam</w>
nord west
cent ral</w>
ein fach
mi ke</w>
mo dus</w>
bo b</w>
pat ron
norwe gischen</w>
jac ques</w>
lin ks
n ten</w>
stie ß</w>
184 7</w>
skan z
tro ck
schla cht
än ner</w>
dres dner</w>
neuseel and</w>
an o
glei cher</w>
kan te</w>
zwischen zeitlich</w>
bo li
re d
sich ern</w>
sum me</w>
kom positionen</w>
vi ol
bri ten</w>
mar in
zimm er
ger inger</w>
wi tt
jahrzehn te</w>
schil d
schwe dische</w>
obje kt</w>
marath on</w>
dreh te</w>
plat zes</w>
volks schule</w>
regi erung
komi tee</w>
jaco b</w>
tä ter</w>
184 6</w>
techn ologie</w>
sthe orie</w>
z i</w>
top -
and -
mi s
international er</w>
fre deri
hei ßen</w>
erhalten en</w>
her z</w>
ver sen
su chte</w>
wu pper
er furt</w>
sy stemen</w>
kan t
prinzes sin</w>
li ger</w>
bau meister</w>
lu ci
sport ler</w>
kais ers</w>
re vi
r eini
frie den
fan s</w>
3 000</w>
ma ster
sp ri
i si
lauf ende</w>
gerichts hof</w>
ba s
18 16</w>
sie ge</w>
an satz</w>
lab or
gar d</w>
x .</w>
über le
hof s</w>
ti k-
istan bul</w>
ob last</w>
victori a</w>
an zei
ma h
é s</w>
mann es</w>
ord nen</w>
lehr er
viel fach</w>
hin sichtlich</w>
john son</w>
demon str
st .-
ten -
be lagerung</w>
vor genommen</w>
sla wi
entschei den</w>
berech tigt</w>
geb räu
mo or
na ment
bezi ehen</w>
verbess erung</w>
vor schriften</w>
num mern</w>
son g
fa schi
sied ler</w>
mün zen</w>
institu tionen</w>
ar men</w>
stand s</w>
freun din</w>
kro ati
digi t
bet t</w>
musi kali
missi ons
re form
sicht s</w>
offizi ere</w>
steu er</w>
sein er
oni sche</w>
uni ver
p ur</w>
zau ber
on t</w>
er gab</w>
o tt
n r
jur a</w>
sch a</w>
gefan gen</w>
zi t
person al</w>
aufge hoben</w>
f liegen</w>
bi er
flug platz</w>
gi sch</w>
fir st</w>
giov anni</w>
recht lichen</w>
zusammen schluss</w>
ad ler</w>
ro o
gra u</w>
über wach
ach tet</w>
18 18</w>
wa gner</w>
bay erische</w>
ver drän
k raten</w>
pla y-
w m-
schne e
war schau</w>
leist et</w>
fürst entum</w>
cali for
e g</w>
ar ena</w>
at ta
sel n</w>
s ão</w>
angehöri ge</w>
is ation</w>
185 3</w>
byz ant
scien ces</w>
jap .</w>
tschechoslowa kei</w>
ven ti
betro ffen</w>
flü ssen</w>
heer es
me -
wahr neh
phi la
mä h
cki ge</w>
zur zeit</w>
ó w</w>
franç ois</w>
erzieh ung</w>
gleich ung</w>
ge gliedert</w>
ge führten</w>
instru mente</w>
el em
ot her
so g.</w>
ba ssi
du o</w>
ori a</w>
lat einischen</w>
kateg orien</w>
ph y</w>
aus führ
platzi erung</w>
zei gten</w>
admi ral</w>
man gel</w>
erfahr ung</w>
di -
taus end</w>
kultur ellen</w>
gehör enden</w>
nä her
gegen stand</w>
vereini gte</w>
mess ungen</w>
- universität</w>
schot tischen</w>
musika lischen</w>
inform ation</w>
abstamm ung</w>
ver n
a gen
scha den</w>
nahr ung</w>
sp in
lau t
ro ger</w>
inspi ri
sowje tische</w>
yo ung</w>
letz tere</w>
gat tungen</w>
proze sse</w>
forsch ungen</w>
christ us</w>
be setzten</w>
kontin ent
ein druck</w>
v ar</w>
vertra gs
go tische</w>
gesich ert</w>
tor on
lau ren
selten er</w>
klu s</w>
ro th</w>
geri chte</w>
for um</w>
schie ß
lizen z</w>
ent sprach</w>
9 00</w>
le s-
ar d-
s cor
chur ch</w>
o den</w>
militä r</w>
bemer kens
gesch wi
po ol</w>
grund schule</w>
ge storben</w>
ein tritt</w>
blu t</w>
at mo
bi ologie</w>
ka vall
zu zu
beru fung</w>
för dern</w>
li ve-
ein nahmen</w>
stech nik</w>
qualifik ations
col e</w>
über setz
äl ter</w>
an schau
kandi dat
um welt</w>
kla vier</w>
commit tee</w>
charlo tte</w>
so hn
finanzi elle</w>
ver steht</w>
mori tz</w>
vor haben</w>
ther apie</w>
ch allen
gu s</w>
for mat
ä sthe
manu el</w>
mi gr
on g</w>
verkehr s</w>
meister in</w>
ri v
sin gles</w>
na ci
be hielt</w>
wir t</w>
th ol
ei chen
ti mes</w>
om e</w>
ent hielt</w>
chi le</w>
1 10</w>
kultur elle</w>
v alle
be wegen</w>
fig ur
por tiert</w>
18 14</w>
fest gestellt</w>
la w
pl ün
ver stehen</w>
in formi
blu e</w>
ha in</w>
train ing</w>
eindeu tig</w>
ver ge
t rieb</w>
fei ert</w>
stock holm</w>
el f
hi t</w>
col le
le uten</w>
gefan genen</w>
spor ts</w>
gem ents</w>
demo kraten</w>
ut en
erzähl ung</w>
gedan ken</w>
end lich</w>
konzi pi
freund schaft</w>
anthr op
co s</w>
phila del
maximili an</w>
reda kteur</w>
on i</w>
trieb wagen</w>
c on</w>
glei se</w>
proble men</w>
patri ck</w>
mon d
hoch schulen</w>
wor th</w>
regel ung</w>
forts etzung</w>
c r
intere ss
ern s</w>
vert rei
elekt rischen</w>
ver ni
un -
mom ent</w>
fri stig</w>
geri chteten</w>
g é
ab schloss</w>
c um</w>
ex tra
spoli tik</w>
li gen
ander es</w>
persön lich</w>
kongre ss
fri es
apo the
griechi sche</w>
ent wäss
vor lage</w>
ne st</w>
an ordnung</w>
sa hen</w>
201 0/
sau erst
spei ch
öster reich
verfü gen</w>
o p</w>
ge fahren</w>
schei be</w>
stein -
luft waffe</w>
bo w
ver schle
getrie be</w>
zahl reicher</w>
äuß erte</w>
in fe
ab bau</w>
kommand ant</w>
er zielt</w>
mil ton</w>
habili tierte</w>
vi eren</w>
fan gen</w>
genehmi gung</w>
alle e</w>
b b</w>
rie bene</w>
ent hal</w>
bü ros</w>
a ven
mi scher</w>
gewinn er</w>
b on</w>
sti mmen
aus richtung</w>
mo dul
fei ern</w>
ange sichts</w>
konkurren ten</w>
künstl erische</w>
em o
deutsch es</w>
be deckt</w>
mar c
glo cken
vertre tern</w>
russi sch</w>
ku gel
b är
man fred</w>
brü ssel</w>
medai llen</w>
kompon enten</w>
jes us</w>
rie f</w>
mecklen burg-
erst ü
l ori
an schluss
fäl sch
er -</w>
er satz</w>
empf eh
e ti
afri kanischen</w>
an wal
ham p
ange siedelt</w>
c z
frankrei chs</w>
10 -
ste i</w>
stei l</w>
on y</w>
mini sters</w>
wir bel
päp st
che mische</w>
best es</w>
os na
ein tra
lager n</w>
op eri
schätz ung</w>
kno chen</w>
tan z</w>
beherber gt</w>
re por
andr é</w>
stür mer</w>
d l</w>
luxem burg</w>
ou t</w>
kar l
erfolg los</w>
f k</w>
ko bl
steu ern</w>
br y
che fre
be th
nationalsoziali stischen</w>
rück te</w>
seri es</w>
oni sten</w>
portugie sischen</w>
bü ro
steph an</w>
car los</w>
on en
kün digt</w>
um liegenden</w>
se t</w>
gie ßen</w>
konserv ativen</w>
t rennt</w>
por e</w>
sa arb
geb ot</w>
alum ini
aus wirkungen</w>
kop enhagen</w>
bu sse</w>
bahnhof s</w>
geplan te</w>
verzeich nis</w>
zu gs
christ i</w>
unter e</w>
de legi
öff nung</w>
ox ford</w>
mm er
auf hin</w>
re si
lö wen</w>
empf än
am i</w>
hö her
hof es</w>
ge stellte</w>
trä ch
bel gischen</w>
hein rich
fon ds</w>
basi li
mi chi
so weit</w>
alo m</w>
wär me
ei er</w>
gesund heit</w>
ra li
pho to
in done
ge wor
ti rol
orien tierte</w>
li g
an trat</w>
wan del
ent worfen</w>
a ce</w>
sch wie
/ s</w>
ne o
chri s</w>
regul ären</w>
w om
s ur</w>
fel sen</w>
com muni
sch alt
coun cil</w>
wor aufhin</w>
groß vater</w>
schwan z
ste ve</w>
j änner</w>
pilo ten</w>
co di
ha bi
be stände</w>
etz ungen</w>
vi ć</w>
verlie h</w>
sy dney</w>
wi llen</w>
ch u
westfä lischen</w>
statt fand</w>
er leb
künstl erischen</w>
territ orium</w>
ex pan
bild ungen</w>
183 2</w>
spi tzen</w>
muse en</w>
or en
dar i
auf klärung</w>
califor nia</w>
betroff enen</w>
verb rechen</w>
d um
budd hi
gesprä ch</w>
di am
be fasste</w>
an gehörte</w>
lo sigkeit</w>
la w</w>
kur se</w>
ex per
wesent liche</w>
184 3</w>
201 1/
fran cis</w>
erhalten e</w>
re uth</w>
spiel film</w>
verk ür
r í
mich el</w>
ent zün
chefre da
toron to</w>
persön liche</w>
glei s</w>
hal f</w>
be zog</w>
stei er
er scho
c ab
bo x</w>
sammel n</w>
al tet</w>
dar um</w>
signa l</w>
pri vi
di gten</w>
erfü llt</w>
fun ktioni
frei herr</w>
tie fen</w>
erschien enen</w>
n é
darauf folgenden</w>
online -
verschie den
tat sache</w>
200 9/
ke y
erfü ll
rich ter
journali sten</w>
tä tigkeiten</w>
ger ing</w>
isra e
r ation
reprä sen
komp li
g tes</w>
erwar tet</w>
einzi ger</w>
gewid met</w>
schreib weise</w>
mediz inische</w>
schni tten</w>
pseudon ym</w>
verwaltungs sitz</w>
j ene</w>
gie ß
o ur</w>
sp ar</w>
betrei ber</w>
aus stellungs
ro sa</w>
s hausen</w>
m etz
jer sey</w>
he li
verpa sste</w>
dor ff</w>
sin ger</w>
spezi ellen</w>
einge zogen</w>
ab lauf</w>
russi scher</w>
trä ger
ini erte</w>
feld zug</w>
sp an
über nahmen</w>
vor sprung</w>
kar to
bi ele
männ lichen</w>
gün ther</w>
demokrati e</w>
ver fasst</w>
bu si
3 ,5</w>
n ation</w>
hol t</w>
lei tungen</w>
sor gen</w>
mon at
ab gebrochen</w>
p erte</w>
g on</w>
erk annt</w>
ko hle
6 0
karo ss
ch tern</w>
trupp e</w>
techni sch</w>
größ en</w>
t us
s ati
vir tu
sen s</w>
ori ent
li ss
erinn ern</w>
er end</w>
vize präsident</w>
bi l</w>
erinn erung</w>
temper aturen</w>
d t
toki o</w>
rat h</w>
r t
con tin
stau b
christ liche</w>
he ad</w>
zo genen</w>
ira n</w>
wohn te</w>
geburt stag</w>
hei rat</w>
gam es</w>
missi onen</w>
ss ern</w>
ben s
organi sat
gebräu ch
ro w</w>
ange kla
de bat
ar l
stell vertreter</w>
einge stuft</w>
hoch zeit</w>
st ert</w>
bevorzu gt</w>
vi s
gie bel</w>
ett a</w>
dv d</w>
län g
ko hl
an gren
184 4</w>
hun der
5 0.000</w>
gi f
philadel phia</w>
stati stik</w>
am ent
d ale</w>
kolum bi
beam ter</w>
mo s</w>
bre mer</w>
18 0</w>
ma g</w>
er kran
besonder heit</w>
ab gebaut</w>
mi ch</w>
eu gen</w>
u se</w>
au tori
mi a</w>
durch führung</w>
vor i
bil denden</w>
spei cher</w>
ger ei
ad or</w>
grund le
hü gel
herr scht</w>
schweiz erischen</w>
fa c
vor sitz</w>
9 -
po int</w>
schi enen
land gericht</w>
in haf
a sh
me d</w>
be siedlung</w>
ad ri
vic tor</w>
lokomoti ve</w>
ta u</w>
in va
corpor ation</w>
di kt
do -
de t
volks republik</w>
befin dlichen</w>
si te</w>
zähl ten</w>
p hr
kl ö
per fe
verk lei
be dien
184 2</w>
af ro
bo hr
begri ffe</w>
ett i</w>
erneu ert</w>
jähr liche</w>
bus ch</w>
läu fe</w>
s and</w>
reali siert</w>
wirk ungs
gen f</w>
ausge dehn
pf e</w>
stur m
infra struktur</w>
geh ol
entdeck ung</w>
stell en
entschei dungen</w>
am tlichen</w>
fi a</w>
jack son</w>
je w</w>
chine sische</w>
sch in
pfäl zi
ko st
bestimm ungen</w>
fün fte</w>
kultur en</w>
schwer punkte</w>
london er</w>
201 2/
li o</w>
fel dern</w>
genu g</w>
or y</w>
ab stimmung</w>
sta ges</w>
vor heri
schlagzeu ger</w>
kü mm
hil f
nö tig</w>
befehl sh
sin e</w>
zz o</w>
wor ten</w>
minister präsident</w>
gemein schaften</w>
schrei ber</w>
journa l</w>
ar te
produ kt
an gebaut</w>
s w
bla ck
weihnach ts
kommiss ar</w>
183 5</w>
el er</w>
gräf in</w>
en gen</w>
bewohn t</w>
g ger</w>
gesu cht</w>
ven tion</w>
hin weis</w>
sonn tag</w>
techn ologi
ar d
min ne
hä fen</w>
jugend lichen</w>
un weit</w>
et a</w>
all -
zi erung</w>
16 0</w>
183 7</w>
intervie w</w>
aus gerichtet</w>
10 0.000</w>
kul ar
kam pagne</w>
cam bridge</w>
gol f</w>
el be</w>
in sol
wirtschaft lich</w>
general major</w>
verwal tet</w>
tau cht</w>
re gu
wei mar</w>
th öch
straßen bahn</w>
c ent</w>
klassi gen</w>
klassi zi
fa ir
ab schnitte</w>
tra ck</w>
diskus sion</w>
kl aus
sch ol
ro th
si g</w>
ko ch</w>
a gu
ol denburg</w>
bundes staates</w>
grund riss</w>
veranstal tet</w>
wun der
en -</w>
se d</w>
zu stimmung</w>
aus zeichnungen</w>
eber hard</w>
201 3/
st rand</w>
schutz gebiet</w>
tel n</w>
vi s</w>
fre unden</w>
ä le</w>
t ra</w>
ärz te</w>
bru st
p hal
na h</w>
vermei den</w>
befehlsh aber</w>
seiner zeit</w>
py rami
tex ten</w>
erweiter te</w>
aus ü
f fizi
de kan
es sion</w>
sy mb
haus halts
s é
wil son</w>
bö gen</w>
besu chen</w>
frequ enz</w>
lan gten</w>
unterrich tet</w>
ha ven</w>
ange passt</w>
rund funk</w>
kan sas</w>
co tt
feuer wehr
hand werk
ver wirk
versorg ungs
gr ani
chi l
be heimat
blu es</w>
ken nen
gesell schafts
m and</w>
förder te</w>
formel -
ra ssi
bom ben
verwand t</w>
so phie</w>
ge folgt</w>
oper ationen</w>
h ul
tschechi schen</w>
straß burg</w>
g nisse</w>
gewi sse</w>
erli tt</w>
anwen dungen</w>
d d</w>
berg bau</w>
näch st
säch sische</w>
hei z
mittelalter liche</w>
schul d</w>
häufi ger</w>
a gi
strö m
ann ter</w>
h olo
pal ais</w>
mit arbeitern</w>
finan ziert</w>
d b</w>
dau ern
legi slat
herr schafts
verla gs
stein s</w>
regierungs bezirk</w>
gan genen</w>
kri terien</w>
seh ens
per for
palä st
tradition elle</w>
gra fen
tor pe
ton y</w>
säul e</w>
ru hi
sperr t</w>
untersuch ungs
sel e
männ liche</w>
klei dung</w>
6 :
zw ang</w>
do w</w>
184 1</w>
le kt
orche stra</w>
disku tiert</w>
qualifizi ert</w>
stad tzent
un der
konzer t
183 8</w>
ang st</w>
pi r
sammel te</w>
op el</w>
ge fallen</w>
v au
zusammen setzung</w>
eur o
bischö fe</w>
15 0
gewä chse</w>
aus de
erziel en</w>
erkrank ung</w>
sch lich
re b
mi x
komponi erte</w>
pflich t</w>
tri um
des wegen</w>
vor neh
t le</w>
ne s
t als</w>
ro t-
qualifizi erten</w>
kon g</w>
wa cht</w>
reich en
ma hl
d rah
zy klus</w>
ver legte</w>
iden tisch</w>
an en</w>
gestal ten</w>
stadi um</w>
jes u</w>
zwan zig</w>
schwer t</w>
verfilm ung</w>
di alo
vor steh
sch el</w>
weimar er</w>
ober st
ssen er</w>
be graben</w>
183 6</w>
restauri ert</w>
er y</w>
18 10</w>
voll ständige</w>
weib lichen</w>
gewi ssen</w>
verk nüpf
gel ern
un zu
da men</w>
op i
hanno ver
recht lich</w>
schir m
ex -
gitarri st</w>
an nahme</w>
se kund
er ei
spräsiden ten</w>
stimm t</w>
zylin der
i ran
kommen de</w>
orts name</w>
nieder ländische</w>
li er</w>
ev entu
wa ppen
volu men</w>
fun ktions
ber ges</w>
con ne
verblie b</w>
f em
sym p
religiö se</w>
davi s</w>
leichtathle tik-
komi tees</w>
ver scho
rei fe</w>
pi o</w>
unterschied licher</w>
be ha
lo thr
proje kten</w>
ra y
ru hen</w>
pfer d</w>
bezeich neten</w>
ge st
um gang</w>
er setzte</w>
hin weise</w>
w ellen</w>
ssekre tär</w>
h ms</w>
re den</w>
se a</w>
hal ts</w>
183 9</w>
at ori
beglei tete</w>
wer fen</w>
a post
ma yer</w>
ali s</w>
g gen
ben jam
slowa kei</w>
bisheri ge</w>
hy per
hen ri</w>
sei l
komp anie</w>
or a</w>
mü sse</w>
gesch ma
neu en
fu hren</w>
fach werk
schwie ger
be stre
verblie benen</w>
brun n</w>
g all
buch es</w>
teil nehmen</w>
si zi
stu hl
erkenn t</w>
se di
wies baden</w>
soziali stischen</w>
auf weisen</w>
tü r</w>
zeit gleich</w>
o ver
gewinn ung</w>
oli ver</w>
spekt rum</w>
sel ber</w>
luther ischen</w>
ol e
jähri g</w>
sp li
flei sch</w>
milli on</w>
dien sten</w>
ar do</w>
201 4/
musik ern</w>
kun den
schla f
auto bahn
af gh
bro ad
ung ss
la de
1 200</w>
akade mischen</w>
schle cht</w>
station iert</w>
zuschau ern</w>
com mon
l ein</w>
dokumen tiert</w>
schick sal</w>
ta ge
er fuhr</w>
qualifizi eren</w>
din a</w>
stipen dium</w>
ausreich end</w>
oxi d</w>
un ser
zu cker
wo o
regi ments</w>
recht liche</w>
183 4</w>
jahrhunder te</w>
angri ff
sol dat</w>
unter lagen</w>
ou gh</w>
schiff es</w>
verfüg bar</w>
naci onal</w>
mei er</w>
mo sche
ga -
ge eig
gar ni
au stri
ti smus</w>
aus rüstung</w>
kas erne</w>
städ ter</w>
ben annten</w>
bäu men</w>
aus drück
kin g
beru ht</w>
all mäh
ei ro</w>
m ord
o e
hab s
entwick lungen</w>
tra sse</w>
la g
umfass ende</w>
quadrat kilometer</w>
landwirtschaft liche</w>
1 30</w>
ca pi
versu chten</w>
bl es</w>
zu satz
ol o</w>
b rück
fal t</w>
de sign
verhin dert</w>
sol le</w>
rei fen</w>
psychi at
mün z
fär bung</w>
trin k
che mischen</w>
trupp en
tier enden</w>
batai ll
b eine</w>
betre ut</w>
reihen folge</w>
m ein</w>
identi tät</w>
ger man
öst licher</w>
existi erte</w>
ar me</w>
10 ,
í k</w>
pfer de</w>
wa ys</w>
vergleich sweise</w>
bi er</w>
sti mmi
lös ungen</w>
g or</w>
mi erten</w>
ka te</w>
ur aufführung</w>
präfe ktur</w>
durch schnitt</w>
no u
k ation</w>
pa der
mon o
t ett</w>
ent warf</w>
erhe bt</w>
ent en
t tel</w>
fu sioni
moti ve</w>
ren om
rh einischen</w>
so und</w>
at i</w>
hel den</w>
letz tes</w>
stä mme</w>
vat er
en or
ab teilungen</w>
ti sches</w>
kar ten
be förderung</w>
ki l
2 .000</w>
w ö
landwirtschaft lichen</w>
folgen d</w>
geschä ft
de te
bl ö
eri en</w>
sor ten</w>
haf t
w ladi
katholi scher</w>
ka i</w>
edi tion</w>
z onen</w>
programm s</w>
gem ü
un klar</w>
besitz ungen</w>
lei den
kel s</w>
lexi kon</w>
entsp rechen</w>
hal tungs
mark us</w>
gün ter</w>
angren zenden</w>
mark et
jes ui
geschlo ssene</w>
tor hü
wen den</w>
ok res</w>
erd be
entstan dene</w>
verkauf ten</w>
on tari
jün gste</w>
di stan
town ship</w>
dur ften</w>
st ett
muse ums
mitglie ds
psych o
ost preußen</w>
on ne</w>
im peri
f ers</w>
brie fe</w>
olympi sche</w>
nor man
papi er</w>
wi th</w>
mo or</w>
ho fer</w>
18 21</w>
vi su
intensi v</w>
flü ge</w>
auss ehen</w>
re m
m aus
re ssour
grie ch
ari s</w>
be wal
bedeu tete</w>
and o</w>
fd p</w>
vorüber gehend</w>
bewahr t</w>
fel de</w>
wahr heit</w>
liga -
eishockey spieler</w>
ab gesehen</w>
su n</w>
ver träge</w>
mole kü
t rü
gesch la
benedi kt
vor her
risi ko</w>
18 20</w>
über gangs
mon tan
gar de</w>
sub stan
syn dro
präsident schafts
fle cken</w>
h c</w>
gerä ten</w>
in klu
ge sicht</w>
sub je
lin d
empf ing</w>
gesamt wertung</w>
arz nei
abgeord neten
verkauf s
bran che</w>
diszip lin</w>
flo ssen</w>
ant rie
en gel</w>
tay lor</w>
de kor
er forschung</w>
di er</w>
a s-
versi cher
st ün
bil l
be fasst</w>
sk y
imm er
agent ur</w>
be sich
wer bung</w>
intere ssen
ac t</w>
erreich bar</w>
legislat ur
wol fs
merk mal</w>
14 0</w>
gele genheit</w>
be arbeitung</w>
marsch all</w>
ni ck</w>
ati ver</w>
sani erung</w>
erhö hte</w>
heili gen
gh ts</w>
über reste</w>
pi et
aus gerüstet</w>
rie l</w>
her um</w>
bebau ung</w>
gol den</w>
besie gte</w>
di ck
ar a
baro ck
san k</w>
herzo gs</w>
ger ing
einsch rän
ei l</w>
zes sion</w>
bour ne</w>
auf sicht</w>
wor k</w>
go w</w>
dör fern</w>
gu ine
pädagogi k</w>
restauran t</w>
vor ange
at en
hel m
zwe ck
mü hlen
unter ir
ty s</w>
w öl
steier mark</w>
cir ca</w>
bess ere</w>
18 -
verbun denen</w>
boch um</w>
über nimmt</w>
süda meri
renaiss ance</w>
8 0
e o
b or</w>
süd seite</w>
ereig nis</w>
ro hr</w>
bele gen</w>
bi t</w>
aus gang
zwe cken</w>
unmittel barer</w>
dire ktion</w>
sk ý</w>
überrasch end</w>
o mischen</w>
ver nicht
st aus
sü ß
n i</w>
berühm ten</w>
gewer be</w>
einzi ges</w>
d m</w>
pflich t
ke -
gere cht</w>
ge bildeten</w>
ba ss
staat so
mittel europa</w>
verbrei tete</w>
h und</w>
genossen schaft</w>
chan ce</w>
verzi chtete</w>
integr ation</w>
formula_ 2</w>
y ne</w>
ar tig</w>
ge be
flie ger
mon archie</w>
juni or</w>
zusammen hän
verb änden</w>
18 31</w>
tür kische</w>
be stimmen</w>
kirch lichen</w>
bekämpf ung</w>
koali tion</w>
sp lä
netz werk</w>
f at
don ald</w>
pan zer</w>
homo sexu
gebiets reform</w>
be kommt</w>
rück zug</w>
glü ck</w>
l t
auf führungen</w>
gesellschaft lichen</w>
spani scher</w>
neben fluss</w>
da vor</w>
bri cht</w>
lewi s</w>
grund lagen</w>
lei tungs
inn eh
partem ents</w>
kapi tal</w>
bevölkerungs dichte</w>
a chtung</w>
standar ds</w>
flor enz</w>
kon ver
telef on
vorauss etzung</w>
sch är
1 .000</w>
köni ge</w>
pfei ler</w>
deck ung</w>
t licher</w>
bekann theit</w>
schri f
di ck</w>
episo den</w>
kü che</w>
gewal t
tro m
ma x
dokument ation</w>
zenti metern</w>
sat tel
ten nis
kommunik ations
hir sch
komple x
r eine</w>
re formen</w>
an us</w>
gre at</w>
winter spielen</w>
ab stra
wu ch
theat ers</w>
residen z</w>
lin den
3 50</w>
ze che</w>
bewer tung</w>
ge feiert</w>
er fasst</w>
st rupp
201 5/
a zi
schwe ster
mit begründer</w>
ib n</w>
sp lat
n n</w>
strate gie</w>
el tern
techni ken</w>
gedi cht</w>
mensch liche</w>
schlü sse</w>
w än
pe king</w>
über ein
er haltung</w>
vi en</w>
wär en</w>
dou glas</w>
unter seite</w>
18 12</w>
er ben</w>
a ga
unabhängi ge</w>
reda ktion</w>
agr ar
krank heiten</w>
ge geben
al th</w>
vor ne</w>
u l</w>
berat ung</w>
p ei
gebir ges</w>
acht el
lehr erin</w>
wissen schafts
auf stellung</w>
mü hlen</w>
lü ne
all eine</w>
kapi tal
stammen de</w>
o ur
be freun
zehn ten</w>
koloni en</w>
sp lan
c le</w>
gn a</w>
li ppe</w>
gul den</w>
ti m</w>
n hl</w>
the men
ven t</w>
ra b
litt le</w>
erklär en</w>
verein ten</w>
eg on</w>
end runde</w>
kommun e</w>
prin zen</w>
anfan gs
kar din
championshi p</w>
sch lie
wil d</w>
rich tet</w>
mari o</w>
weiter entwicklung</w>
vol ley
ord nungen</w>
erk annte</w>
z or
u x</w>
lich ste</w>
chro mo
k äu
s ation</w>
metro poli
ge steu
bunde stag</w>
frei heits
benjam in</w>
natür lich</w>
plötz lich</w>
zahl ung</w>
vo g
ten der</w>
hin zuge
ch a</w>
transpor tiert</w>
er lei</w>
kür z
kennt nisse</w>
he ck
dimen sion
un entschieden</w>
reser ve</w>
ti fi
mar ok
di chtung</w>
verkauf en</w>
p utz
mün ster
zeit wei
zi sten</w>
tür me</w>
haupt bahnhof</w>
fell ow</w>
vor erst</w>
ch au
cor ne
fin nischen</w>
yor ker</w>
sch or
hospi tal</w>
straßen bahn
bek enn
windo ws</w>
zi gen</w>
nieder österreich</w>
lat .</w>
f und</w>
geist lichen</w>
wo von</w>
c ation</w>
schu ppen</w>
18 17</w>
mo ham
hoff nung</w>
württem bergischen</w>
stei l
kreu zer</w>
erd geschoss</w>
bachel or</w>
erfolgreich sten</w>
vorauss etzungen</w>
diri gent</w>
kä fer</w>
bestä tigte</w>
lang haus</w>
hol land</w>
champi ons</w>
er fahren</w>
um t</w>
erzähl ungen</w>
tö ten</w>
ru p
wo od
zugehöri gen</w>
augu st
ti tul
ani sch</w>
vor deren</w>
re konstru
einzugs gebiet</w>
un s
ver lässt</w>
land schaften</w>
hervor ra
ta kt
pol ar
en os</w>
app ar
vi si
pan z
el and</w>
wil ligen</w>
tri bu
ge messen</w>
blau en</w>
ul m</w>
se y
original titel</w>
5 :
sch rö
met e
valle y</w>
p for
arme e
stre u
n t
ge lo
teil ungs
/0 9</w>
miner al
tri o</w>
zeich ner</w>
pa ki
sp d-
nieder sächsischen</w>
de x</w>
kont roll
ra jon</w>
o den
bulgar ien</w>
183 3</w>
rail way</w>
römisch- katholischen</w>
wander er</w>
rau ms</w>
jugosla wien</w>
schlä gen</w>
strukt uri
be c</w>
con stan
sk e</w>
18 25</w>
zer em
su s
temper atur
zz a</w>
sau er
wor auf</w>
bli n</w>
bürger lichen</w>
zusätz lichen</w>
män ner
mi d
lon g</w>
ges angs
ein kauf
se c
stra sse</w>
pa g
ho tels</w>
zw in
leop ol
vier ter</w>
e volu
si bi
beauftra gte</w>
ll es</w>
vor pommern</w>
denkmalgeschütz ten</w>
debüt album</w>
zeich neten</w>
fe dern</w>
bundes regierung</w>
pat hi
met a
di l
städ tische</w>
nutz t</w>
v re</w>
gele gten</w>
zeit liche</w>
völ ker</w>
trei b
athle ten</w>
s et
schriftstell erin</w>
sie bten</w>
re tten</w>
er o</w>
kre bs</w>
ge lieb
test s</w>
inter ni
äu s</w>
nach folgenden</w>
begeg nung</w>
b innen
eigen schaft</w>
titel n</w>
ver ehr
pri mär
ein flüsse</w>
vert rieb</w>
bar t</w>
schwa ch</w>
en sis</w>
ster ne</w>
minne so
ge öffnet</w>
nachfol ge
detail s</w>
geb u
elem ent
ent stammte</w>
vide os</w>
positi ve</w>
l um
unter brech
be gegn
ge fall
eri c</w>
ro y</w>
aff äre</w>
v r
kun fts
spiel er
180 8</w>
op position</w>
konven tion
jur y</w>
lie bes
zu führen</w>
fü hl
18 28</w>
turni ers</w>
tour isti
auf klär
sor gt</w>
me y
gere gelt</w>
8 /09</w>
verb und</w>
lau tete</w>
ru mpf
zä hne</w>
tre ppe</w>
re kord
kredi t
dä nische</w>
end s</w>
2010/ 11</w>
auf hebung</w>
zeich en
an alo
wirk lich</w>
slo weni
st etten</w>
halten en</w>
5 000</w>
verle ger</w>
jen seits</w>
ten ni
konstan tin
off -
saarb rücken</w>
ent täu
son -
the ologischen</w>
letz t
z in</w>
renn fahrer</w>
sen ator</w>
orien tiert</w>
ense m
mel dete</w>
verhält nissen</w>
unabhängi gen</w>
ein halb</w>
u e
on line</w>
r annt</w>
do wn</w>
gesch wa
ne st
län gs
2 7
theat erstü
i an</w>
mon tre
ssi n</w>
hän de</w>
nor m</w>
zie gel
st eri
verbess ern</w>
ver änderung</w>
schwan z</w>
or in</w>
mor ali
mo sk
at tent
haupt rollen</w>
sohn es</w>
di chter
ser nen</w>
ty -
kreis stadt</w>
ä t</w>
k lang</w>
zurückzu führen</w>
v es
still gelegt</w>
stif ts
ateli er</w>
a o</w>
ra iner</w>
sk en</w>
schn eller</w>
autom atisch</w>
st reich
wä hlen</w>
s her
ke ssel</w>
de i</w>
sei tigen</w>
rech er
grei fs
auf wand</w>
cre ek</w>
regelmäßi gen</w>
pi an
kur ve</w>
staat sex
spar kasse</w>
di da
si de</w>
alko ho
erfü llen</w>
ausde hnung</w>
des heim</w>
ki lo
hand werk</w>
wan del</w>
kreuz ung</w>
haus halten</w>
ta kti
mi ss</w>
interpre tation</w>
te ster</w>
ün sti
schlä gt</w>
erlau bnis</w>
ari tät</w>
2 3
bur gs</w>
ex il</w>
histori c</w>
proble mati
sozi ologie</w>
dokum ente</w>
wick elt</w>
fli ehen</w>
platzi erten</w>
kan zel</w>
süda merika</w>
nor dischen</w>
wesen s</w>
hei de
liss ab
salz burger</w>
schrit te</w>
amts gericht</w>
ten e</w>
gener ell</w>
è res</w>
wettbewer be</w>
erscho ssen</w>
größ ter</w>
a go</w>
ton -
sig ni
ku gel</w>
mo s
pe d
betre ff
li mi
lief ern</w>
gemel det</w>
ge langt</w>
schrit t
rah men
ter ror
end spiel</w>
jü discher</w>
de lla</w>
grei ft</w>
cla ssi
basket ball
g no
publi zierte</w>
180 9</w>
bach -
hon or
/ oder</w>
besa ßen</w>
diplo m</w>
le ser</w>
gemein nü
brei ten
gemein schafts
re serv
gra s
flücht linge</w>
sti ck
inse kten</w>
pp i</w>
groß em</w>
ge dä
zu fluss</w>
verbin den</w>
et es</w>
s und</w>
andre w</w>
foto s</w>
mu ster
osna brück</w>
intel ligen
beschäf tigten</w>
w ul
col or
sch ein</w>
re eder
g ord
tig keits
läu fer
kenn zeichen</w>
erhö hung</w>
ver se</w>
i g</w>
stri chen</w>
il le
stammen den</w>
bewe gt</w>
rí o</w>
statt fin
konzentr ation</w>
st on
bi eter</w>
ra de
hel l</w>
lässi g</w>
i f</w>
mo uth</w>
kon text</w>
geschle chts
r in</w>
9 0
spa ce</w>
extre m</w>
ent he
be stellt</w>
bekann teste</w>
car lo</w>
be gründung</w>
prä zi
kobl enz</w>
eben en</w>
do w
a he</w>
re gen</w>
norda meri
din ge</w>
liter arischen</w>
180 7</w>
dor n
umfang reichen</w>
mon te</w>
ch ari
anti -
ö f
stan de</w>
republi kanischen</w>
nea pel</w>
spann ungs
landtags wahl</w>
nord seite</w>
krie g
b .
ach sen</w>
zo gene</w>
in stall
fa che</w>
zwi l
normal erweise</w>
zu cht
en dem</w>
te zeit</w>
f é
hinter en</w>
quad r
hen ri
bemü hungen</w>
zuge teilt</w>
vor lesungen</w>
2011/ 12</w>
kri stal
kon tro
fo und
aus en</w>
zi tät</w>
unter wegs</w>
the ologe</w>
ü bt</w>
vor läufi
napole on</w>
pi us</w>
isla mischen</w>
geschni tten</w>
cu t</w>
us- bundesstaat</w>
geri chtete</w>
ali sten</w>
ba -
rol and</w>
mode llen</w>
land schaft
gre en
gän gen</w>
anti semi
ge dacht</w>
fal ken
viel falt</w>
pol e</w>
c ann
do wn
an treten</w>
dreh arbeiten</w>
train er
h z</w>
gymnasi ums</w>
disziplin en</w>
abge geben</w>
nor malen</w>
tra genen</w>
im pul
ser ge
provin z
pf en
m elt</w>
um fassen</w>
offen sichtlich</w>
or ts</w>
lo s
ge la
cm ³</w>
brü dern</w>
b ra</w>
t ell
po wi
kaf fe
ch al
gab riel</w>
geh abt</w>
an to
regi me</w>
bis mar
über schrei
stat u
des -
ju den
di er
skan dina
schle chten</w>
ge stre
verbess erte</w>
mann s
befrei ung</w>
schwer er</w>
rele van
musi cal</w>
spar tei
ger un
entschei dend</w>
ss i</w>
man chester</w>
lie dern</w>
u b
18 26</w>
liefer ten</w>
kö mm
hub schrau
gar y</w>
2013/ 14</w>
th ri
zi t</w>
po e
m aus</w>
or din
erz bistum</w>
weiß en
um gangs
lebens jahr</w>
co sta</w>
instal liert</w>
landwirtschaft lich</w>
bewusst sein</w>
unter hält</w>
holly wood</w>
produ kten</w>
eli za
asso zi
j im</w>
pet ro
ori s</w>
met al-
bo b
rie d</w>
re zen
se bene</w>
michi gan</w>
hum bol
eta ppe</w>
einge laden</w>
fl ur
sie gel</w>
sp rei
beoba chten</w>
vo i
auf träge</w>
18 24</w>
minneso ta</w>
is en
) )</w>
on n
th y
i us</w>
si mul
dro gen
zweit ligisten</w>
schw ung</w>
el a
cent re</w>
köni glich</w>
kani scher</w>
h als</w>
glad bach</w>
2009/ 10</w>
be herrsch
nach weis</w>
land rat</w>
vergleich bar</w>
nament lich</w>
ex press</w>
physi ka
w öch
er schlossen</w>
jör g</w>
18 22</w>
ent lassung</w>
18 29</w>
sei tlich</w>
verein zelt</w>
aktivi tät</w>
ra ven
vor gang</w>
er hol
bi e</w>
10 0-
bau ch
sieg fried</w>
sain t</w>
han se
vermitt lung</w>
schwer in</w>
rö mer</w>
li ter</w>
bela stung</w>
ori sche</w>
kämpf er</w>
k einem</w>
clau de</w>
sta gs</w>
prü ft</w>
an gabe</w>
kriti sierte</w>
g allen</w>
massi v</w>
kon servatorium</w>
akti on
ren ovi
gewe be</w>
c é
inform ation
geh än
jun ger</w>
ge stif
al geb
ko stü
äuß ere</w>
soft war
gerichts barkeit</w>
wahl bezirk</w>
j ung</w>
brei t
gesch ah</w>
179 8</w>
si sch</w>
run den
her n</w>
ver dan
sche f</w>
materi al
mal te</w>
ru g
wis con
bru ders</w>
ansässi gen</w>
bewohn ern</w>
wohl hab
ha milton</w>
ke ssel
aus lands
ai res</w>
plan ungen</w>
sch ritten</w>
boo k</w>
200 8/09</w>
mal ay
an den</w>
2012/ 13</w>
os manischen</w>
auf nehmen</w>
gewerk schaft</w>
seiten s</w>
lö wen
st rich</w>
charak teri
be währ
hoff mann</w>
divi si
0 ern</w>
tz en
ken s</w>
administ r
sp uri
vereini gt</w>
lich ung</w>
sa ale</w>
ck ers</w>
steurop a</w>
mag dal
kor n
wettbewer ben</w>
na t</w>
dra ft</w>
mar y
depart ament
z et
zu tage</w>
versor gt</w>
b c</w>
zu ges</w>
aus grabungen</w>
frü he
erneu ten</w>
be stattet</w>
er wies</w>
ho hl
de ll
dau ert</w>
kam p</w>
ver lor
bern d</w>
lebens mittel
re be
mat t</w>
se m
lan de</w>
inve st
uni vers
he brä
jä ger
ho ven</w>
na vi
quali täts
skulp turen</w>
symp tom
mar c</w>
pf und</w>
spal tung</w>
biele feld</w>
el sa
wör ter</w>
lei h
lich keits
p al</w>
erb te</w>
kriti sch</w>
beton t</w>
be ach</w>
a del</w>
wohn ungs
gefan gene</w>
statt finden</w>
k im</w>
mi ller</w>
ge krö
12 ,
mo tori
e den</w>
ern st
bal ken</w>
roman s</w>
ausge legt</w>
2014/ 15</w>
ra pi
partner schaft</w>
ge hir
elekt ron
römisch- katholische</w>
ar isch</w>
tirol er</w>
bin den</w>
staatsex amen</w>
syn these</w>
am bi
da te</w>
titul ar
vorneh mlich</w>
erst ligisten</w>
angri ffen</w>
be enden</w>
auf lagen</w>
me mori
wet ter</w>
mu sk
v u
hü tten
geh andelt</w>
a gn
hub raum</w>
na s</w>
gen es</w>
k es
ham mer
syn the
gefü hl</w>
ran de</w>
fotografi e</w>
wand lung</w>
p end
national versammlung</w>
gescho ssen</w>
vor arl
ver arbeitet</w>
z ür
klein stadt</w>
ir gend
la dy</w>
fel l</w>
ss o</w>
/0 8</w>
mitglie dschaft</w>
kri tischen</w>
k ta
elli p
verhält nis
s um</w>
rä te</w>
gewöhn liche</w>
tür en</w>
wöch ent
allmäh lich</w>
ba g
aus scheiden</w>
wel chen</w>
mäßi gen</w>
bur gen
dienst leistungen</w>
180 2</w>
könig liche</w>
über führt</w>
kno chen
herstell ers</w>
bo ten</w>
zu geschrieben</w>
gi er</w>
parlam ents</w>
man us
ch lor
in er
bürger krieg</w>
vor läufer</w>
asteroi d</w>
ts -
bau werke</w>
wi ch</w>
flei sch
ck i</w>
lin gs</w>
jähr lichen</w>
priester weihe</w>
ll er
bar es</w>
qu é
ko v</w>
turni er
archä ologischen</w>
haus halt</w>
bo y</w>
wei len</w>
aus gang</w>
gra du
johann a</w>
be -
sp ür
met ter
besch ei
vor runde</w>
s feld</w>
höl z
ameri kan
bein ahe</w>
bli ck
18 11</w>
1, 2</w>
ó r
bur gen</w>
autom ati
testam ent</w>
ver lo
commun au
la t</w>
fen stern</w>
konzentr ations
201 6/
vizem eister</w>
z á
ha hn</w>
un bekannten</w>
an spru
ch el</w>
schlü ssel</w>
d ung
ger ne</w>
bewaff neten</w>
schwieri g</w>
um ständen</w>
könig reichs</w>
18 19</w>
tropi schen</w>
episo de</w>
konfli kten</w>
ter es</w>
ober geschoss</w>
hl -
p ran
sch ten</w>
l aus
be ute</w>
auf wen
an sprüche</w>
li pp
em p
abhängi gkeit</w>
än ge</w>
histori scher</w>
duis burg</w>
zu satz</w>
vor feld</w>
plan eten</w>
ti es</w>
o si
hin weg</w>
1 20
lo hn
gesam melt</w>
stei gerung</w>
s org
maß nahme</w>
lo kal</w>
aspe kte</w>
be wirtschaf
kom pa
zwei g
pflan z
zwei geschossi
ki s</w>
gener alle
kri tische</w>
geh äuse</w>
ett o</w>
en de
har z</w>
si erungs
schan ze</w>
heil bronn</w>
de kan</w>
kennt nis</w>
sei tige</w>
rac ing</w>
bedro ht</w>
p son</w>
empf angs
sch lan
mm -
katholi ken</w>
nürn berger</w>
dd y</w>
hi ts</w>
distri ct</w>
ak ten</w>
se eh
ban de</w>
179 3</w>
powi at</w>
in halte</w>
d ur</w>
ser ver</w>
li gkeit</w>
inde x</w>
be häl
e ssa
w ka</w>
so ft</w>
rä ger</w>
besonder er</w>
sen -
sti el</w>
verkehr en</w>
train ings
7 /08</w>
al an</w>
vorder grund</w>
at orium</w>
ari o</w>
einhei mischen</w>
sor te</w>
chen en</w>
dop pelt</w>
d rücken</w>
kandi dierte</w>
inklu sive</w>
ergän z
180 1</w>
wel tre
wal des</w>
spar tner</w>
rang liste</w>
har vard</w>
schwar z-
tei ch</w>
ben er</w>
titel verteidiger</w>
er setzen</w>
rol f</w>
bi bel</w>
flugzeu gen</w>
konzentri erte</w>
boo ten</w>
studi eren</w>
halte stelle</w>
alko hol
n er-
ga te</w>
gu ter</w>
wi tter
et hn
stand orte</w>
e der</w>
to t</w>
schlagzeu g</w>
auf fäl
wohn sitz</w>
plat eau</w>
ale x</w>
krie gen</w>
berg werk</w>
schü tze</w>
lin gu
sch rieben</w>
tran si
flor a</w>
ver laufen</w>
isla m</w>
communau té</w>
bar ri
maxi male</w>
mi s</w>
betreu ung</w>
enz y
ent urm</w>
stadt bezirk</w>
di gungen</w>
de vi
ge gent
h essi
bean spru
bezeich nen</w>
befesti gung</w>
feh ler
rein hard</w>
bewe gungs
ur lau
hol d</w>
unterschei dung</w>
sommer spielen</w>
auf bau
ki es
pa s
a f</w>
gran de</w>
eliza beth</w>
bedeut ender</w>
pen sioni
min g</w>
je witsch</w>
bri an</w>
sitz t</w>
ameri ca</w>
ts v</w>
und /oder</w>
schiff s</w>
lin gton</w>
lo ser</w>
stell ter</w>
philosophi schen</w>
at o</w>
strei tigkeiten</w>
st ungen</w>
bern ard</w>
h ür
de leg
18 27</w>
mit hilfe</w>
drehbuch autor</w>
br ün
zi en
li tur
ka ss
än e</w>
tur in</w>
ni ght</w>
hel sin
ge liefert</w>
landes regierung</w>
ein gangs
zeu ge</w>
speziali siert</w>
ru fen</w>
erheb liche</w>
gerichts bezirk</w>
zwei gt</w>
180 5</w>
mathemati ker</w>
ex ter
ten nis</w>
spren g
gal axi
au e</w>
si mon
perfor man
erneu te</w>
get rän
fa vori
stitu t</w>
schsprachi gen</w>
auf weist</w>
san ti
ober bürgermeister</w>
geschaffen en</w>
li ght</w>
an stieg</w>
sk o</w>
lu is</w>
2015/ 16</w>
haupt sitz</w>
le gten</w>
staffel n</w>
ck ung</w>
um zug</w>
ger aten</w>
gam e</w>
met hy
gü tern</w>
or f</w>
g anda</w>
quo te</w>
hand ball
fan g</w>
be ut
tei ligen</w>
ton s</w>
sthe ater</w>
è s</w>
hei tlich</w>
posi tion
sign al
get renn
rol l</w>
belie bt</w>
wa hr</w>
radi k
a qui
verursa cht</w>
stör ung</w>
länger en</w>
er ing</w>
w änden</w>
wirk lichkeit</w>
hin sicht</w>
fle xi
seel e</w>
f l</w>
nä hr
al geri
rau mes</w>
zeitgenössi schen</w>
to ten
skam mer</w>
ad -
reno viert</w>
kir ch</w>
ir r
staatsan wal
no w</w>
frei zeit
w w
geist licher</w>
schal tung</w>
gew and
ci fi
kür zt</w>
hi re</w>
p ö
hal s
wohn t</w>
gehei men</w>
2 6
auf steiger</w>
mo del</w>
güter verkehr</w>
um zu
sand stein</w>
ho ward</w>
aus brei
we ser
j ord
war um</w>
gesch ei
ach ter</w>
verteidi gen</w>
ka p</w>
e x</w>
über lieferung</w>
wissenschaft lich</w>
aus gangs
hochschul lehrer</w>
gefe cht</w>
bi sch</w>
vi i.</w>
hal ben</w>
ab grenz
zä h
an re
ru hr</w>
erfolgreich ste</w>
t hei
lich ten
unter zeichnete</w>
eingeschrän kt</w>
än en</w>
rund fun
an kunft</w>
spann ungen</w>
na n</w>
ge sta
sp enden</w>
registri ert</w>
mäßi ge</w>
pilo t</w>
bischö f
d ringen</w>
thür inger</w>
benedi kt</w>
hau t
verk äu
o mische</w>
kultur denkmale</w>
ab wehr</w>
umfa ssenden</w>
stir bt</w>
national er</w>
fla chen</w>
dor e</w>
er en
e us</w>
um benennung</w>
sitz ung</w>
sprech ung</w>
m .
ru f
vi kt
koor dini
prin ce</w>
ob st
schat z
benachbar te</w>
del l</w>
adre sse</w>
ver dienst
etab lierte</w>
über gab</w>
la h</w>
7 0
mi erung</w>
d p</w>
arbeit geber</w>
trin i
lissab on</w>
web site</w>
beein träch
t ritten</w>
bam berg</w>
halte punkt</w>
ly on</w>
torhü ter</w>
re aktionen</w>
ti ker</w>
sy rien</w>
manus kri
re ut
ent er</w>
da ß</w>
au lt</w>
gemein t</w>
deutschsprachi ge</w>
real schule</w>
men den</w>
erkrank ungen</w>
air port</w>
zeit ungs
ner ven
einzel n</w>
c ari
s li
i soli
tel es
kö pfi
plan te</w>
mü l
ei d
archä ologische</w>
. de</w>
ab schließ
pun k
umge kehrt</w>
berech nung</w>
ab bildung</w>
ver ließen</w>
busi ness</w>
o u</w>
wech s
exempl aren</w>
kroati en</w>
befür wor
vier t
found ation</w>
o h
bess eren</w>
einge teilt</w>
ausgang spunkt</w>
dauer haft</w>
vul kan
her an</w>
klu bs</w>
letz ten
tre u</w>
mar cus</w>
ge bene</w>
chefreda kteur</w>
orthodo xen</w>
li on</w>
jugosla wi
ro ck-
verlie bt</w>
gel ben</w>
konz erten</w>
i v
fizi erte</w>
her an
at -
bu enos</w>
ol i</w>
lie chten
andre a</w>
16 00</w>
main -
publi ziert</w>
nomini erung</w>
gew ün
ko wski</w>
glau bens
hän d
haus er</w>
wel ter
pol nischer</w>
fa ssten</w>
meister schafts
hon g
prop he
m á
er i</w>
s n
wachsen den</w>
auf wän
mittel meer
war te</w>
ver däch
lei chten</w>
ord nungs
haf ens</w>
thai land</w>
rö mer
met er
a hl</w>
sch lö
nacht rä
dan zig</w>
tex til
ro ss</w>
e din
beg eister
über all</w>
mor gen
in grad</w>
sor ti
pa stor</w>
kar a
juristi schen</w>
vergan genen</w>
ci vi
ent -
ge stütz
regel ungen</w>
h é
perspe ktive</w>
beri ef</w>
been digung</w>
spi ritu
litau en</w>
m bach</w>
bu chen
weltcu p
montre al</w>
beam te</w>
ann en
don na</w>
st ron
sitz er</w>
magaz ine</w>
ge ehrt</w>
angebo te</w>
heer es</w>
g licher</w>
fer tigen</w>
le er</w>
bro w
a van
le ger</w>
b gb</w>
kr yp
ho w</w>
18 23</w>
geben de</w>
sch wen
w ann</w>
10 .
konstan z</w>
marki ert</w>
kirch spiel</w>
ce _
schat ten</w>
ste phen</w>
om or
erst ausstrahlung</w>
bi athl
mer ce
kompl ette</w>
gi s
gew ür
os car
deutsch land
codi ce_
so ur
kol legi
mon op
ag gressi
wer der</w>
manu fa
her ange
ge kauft</w>
pf el</w>
in es</w>
d n
schö ne
and au
ungar ische</w>
g ler</w>
chemi ker</w>
le hnt</w>
kur fürsten</w>
orien tierten</w>
an pa
proto kol
ser vic
gen auer</w>
verzi chtet</w>
ehe paar</w>
bili tät</w>
ar ten
fein d
d j</w>
z o</w>
vor aus</w>
sprin ger</w>
und s</w>
con rad</w>
ar es</w>
g n</w>
tt ri
moun ta
main zer</w>
he ssen-
di sp
be lla</w>
pfälzi schen</w>
tem por
tor s</w>
kop pl
k erin</w>
vor name</w>
k etten</w>
enter tain
unabhängi gkeits
lei chter</w>
physi ker</w>
am tlich</w>
ver mein
tal ent</w>
180 4</w>
verfahr ens</w>
os kar</w>
co ver</w>
12 5</w>
magn et
go -
eng ine
neu zeit</w>
zi ster
v at</w>
schu ss
ca es
stand orten</w>
wass ers</w>
c ca</w>
ähn elt</w>
jünger er</w>
atmo sphäre</w>
motor s</w>
e sch
bü hnen</w>
17 00</w>
form ationen</w>
taf el</w>
cle mens</w>
gehol t</w>
neu ere</w>
en nen</w>
antwor t</w>
f ame</w>
mi ssour
ma d
200 7/08</w>
lin i</w>
bre tt</w>
auf zunehmen</w>
kre b
wahrschein lichkeit</w>
et liche</w>
i ri
an stellung</w>
at te</w>
gn y</w>
zerstör ten</w>
zi a</w>
nach frage</w>
sch ung</w>
fl ens
da mm
serbi en</w>
c em
x y
bil ly</w>
b ungs
sä ur
regi ment
de k
bro o
sam e</w>
ansässi g</w>
th en</w>
lie d
mecklenburg- vorpommern</w>
wan g</w>
ins on</w>
föder ation</w>
tages zeitung</w>
s men</w>
anth ony</w>
bekenn t
po de
ba se
so ckel</w>
mo ore</w>
heirat et</w>
ti gem</w>
ge misch
österreich -
ni geri
fin ger</w>
2 8
ur kunden</w>
or ange</w>
germani stik</w>
flo h</w>
a sse
x a
auton omen</w>
emi gri
abge halten</w>
erzeu gen</w>
zi en</w>
f ren
nach zu
hö hlen</w>
myth ologie</w>
tau chen</w>
bürger n</w>
schmu ck</w>
ständi ges</w>
rau b
ma ssa
archä ologie</w>
jan eiro</w>
im mobili
gen s
win kel
si v</w>
befesti gt</w>
ko t
verband s</w>
wei l
ent la
poli zisten</w>
niem als</w>
bo ys</w>
sch mit
gal ten</w>
cti c</w>
ci ón</w>
überwach ung</w>
ali ce</w>
de po
gener ationen</w>
bi ger</w>
gab en
th alle</w>
din g
zei tigen</w>
offen sive</w>
fin g</w>
zen e</w>
mal ereien</w>
fu chs</w>
an sehen</w>
vermehr t</w>
us sia</w>
ent sand
lin col
nord -</w>
außen minister</w>
düssel dorfer</w>
orien tierung</w>
sen s
ontari o</w>
west seite</w>
and ro
th y</w>
nach richt</w>
da b
k lang
i p
land wirtschafts
reich stag</w>
met all</w>
lin k
ge führte</w>
ent schloss</w>
hn er</w>
geor gia</w>
sprin g
sk at
pp el</w>
schwi tz</w>
richt ungs
denkmal liste</w>
s we
kat al
chroni k</w>
erschein ungs
bi tter
letzten dlich</w>
ein genommen</w>
kam mern</w>
körper s</w>
geor ges</w>
pazi fi
gre gor</w>
missour i</w>
ange griffen</w>
spezi fische</w>
auf zeichnungen</w>
lothr ingen</w>
einzi g</w>
äuß ert</w>
po wer</w>
und -
personen verkehr</w>
medi kam
1 19
sax op
geprä gten</w>
befin dliche</w>
schü sse</w>
s m
habili tation</w>
si v
i erungen</w>
dia kon
bal ti
enz o</w>
baro cke</w>
ei ra</w>
kon se
gl y
mosche e</w>
din e</w>
alli anz</w>
on t
vier mal</w>
j imm
/0 7</w>
proje kts</w>
r einen</w>
phil harmoni
o us</w>
di eren</w>
über qu
ho tel
erzieh ungs
r all
lun gen
stuttgar ter</w>
b ing</w>
f i</w>
den berg</w>
beri chter
reich sten</w>
lab or</w>
stür zte</w>
wa che</w>
jün g
a sch
3 0.000</w>
gi erten</w>
ba c
nor th
brü che</w>
an ger
an siedlung</w>
wi ese</w>
l '
ge org
wahrneh mung</w>
ch tig</w>
fußball nationalmannschaft</w>
schn ellen</w>
pha sen</w>
s v
wor te</w>
vorsteh er</w>
t tel
ren é</w>
un gewöhnlich</w>
gedä cht
syndro m</w>
teil nahm</w>
i c
ba s</w>
13 0
bur n</w>
schul den</w>
li ban
tre ppen
missi ssi
g han
17 -
br auch</w>
o de
ge pf
kana dische</w>
hin zu
th é
je w
vet er
geseh enen</w>
os a</w>
che -
war b</w>
ok s</w>
ma ssen</w>
z ona</w>
ukra inischen</w>
john ny</w>
lager ten</w>
y an
ma ine</w>
er forsch
äl terer</w>
nul l</w>
ge form
regelmäßi ge</w>
organ e</w>
mit unter</w>
ket ten
es a</w>
blau e</w>
um satz</w>
un fall
klet ter
renovi erung</w>
met z</w>
be k</w>
phil ologie</w>
man -
auf kommen</w>
gewähl ten</w>
ty p
cam pus</w>
vi e</w>
stad tre
lie b</w>
cam p</w>
ur he
har ald</w>
er pro
auf tritten</w>
forder ten</w>
pla sti
ken den</w>
darstell erin</w>
margar et
blum en
ä thi
tier ter</w>
vorhan dene</w>
fer nen</w>
niedri gen</w>
helsin ki</w>
bru der
ortstei len</w>
ologi cal</w>
fä hr
ful da</w>
i d
zei le</w>
studio album</w>
einzel ner</w>
hy m
re per
plat zierte</w>
preußi scher</w>
c un
f rom</w>
lan dete</w>
erhö hen</w>
er win</w>
finanzi ell</w>
gen aus
ar ea</w>
k w
jaz z-
schei dung</w>
är er</w>
fa chen</w>
befrei t</w>
cht um</w>
po d
lebens raum</w>
herzogt ums</w>
einkauf s
ener gi
bü cher
ver tritt</w>
land ung</w>
wür fen</w>
ent ums</w>
gel ungen</w>
el s
ped ro</w>
thür in
kri st
t re</w>
kanz lei</w>
begegn ungen</w>
publi c</w>
europ e</w>
ange wand
greifs wald</w>
4 ,5</w>
m um</w>
z wie
volk es</w>
sö hnen</w>
berg bau
at ors</w>
tie fer</w>
fahr er
generalle utnant</w>
vor jahr</w>
dor tige</w>
betä tigte</w>
zerstör te</w>
ra n</w>
exe ku
179 4</w>
beschäf tigung</w>
be setzte</w>
gu ar
stren g</w>
re lief
kir cht
urkund liche</w>
ungsp oli
juli a</w>
böh mischen</w>
synony m</w>
auto s</w>
bu ck
kommunal wahl</w>
13 ,
turni eren</w>
formula_ 3</w>
kreuz es</w>
n erin</w>
ma te</w>
r onen</w>
ausdrück lich</w>
tar y</w>
indi aner</w>
b olo
u. s.</w>
lin dustrie</w>
hervor ge
konzipi ert</w>
so uver
hin der
ge li
unter halt</w>
am phi
6 /07</w>
bil dende</w>
australi an</w>
freiwilli ge</w>
bürgermeister s</w>
pl au
li ver
de z</w>
auf einander</w>
sar a
ausge sprochen</w>
vor teile</w>
franzi skan
feu cht
gebor enen</w>
restauri erung</w>
le der
bom bar
tradi tions
verwun det</w>
ge sagt</w>
schni tz
kein erlei</w>
frei willigen</w>
unter einander</w>
ń ski</w>
beschrei ben</w>
fo x</w>
17 0</w>
best ritten</w>
rumä nischen</w>
mil ch</w>
theat re</w>
stra hlen</w>
de tro
m r.</w>
bor ussia</w>
bü ttel</w>
and y</w>
179 0</w>
hinter ließ</w>
fehl te</w>
selb ständige</w>
ange kündigt</w>
heirat en</w>
aber mals</w>
lager te</w>
ge ografi
rum pf</w>
ge startet</w>
1 1,
medi um</w>
ermor dung</w>
fel des</w>
p oni
fabri ken</w>
er lei
pader born</w>
r d</w>
ter r
z lich</w>
kri stall
al u
war ten</w>
v ing</w>
au stau
kenn t</w>
we ser</w>
kab ar
glas gow</w>
le se
hän den</w>
ch lori
pal a
t ina</w>
dor thin</w>
na i
p i</w>
künstl erin</w>
imm un
blü tezeit</w>
aus gleich</w>
produ zierten</w>
premi er</w>
bi lanz</w>
artill erie</w>
stärk sten</w>
eigen em</w>
sch ro
alpha be
la zar
j ab
mechani k</w>
kp d</w>
zusammen geschlossen</w>
hy bri
bru st</w>
c zy
industri ellen</w>
g l</w>
x x
to wer</w>
ti v</w>
lou ise</w>
genaus o</w>
erober t</w>
ari us</w>
gori th
satz es</w>
innen raum</w>
griech isch</w>
fließ en</w>
erwer b</w>
präsen tierte</w>
mar schi
deut liche</w>
z ell</w>
kti ert</w>
0 ,5</w>
platzi erungen</w>
film -</w>
hei tlichen</w>
hi s</w>
ange stellt</w>
al ab
ab gesetzt</w>
de ss
rah am</w>
natur park</w>
o hn
em pore</w>
verpflich tete</w>
fer tig</w>
vor gehen</w>
witten berg</w>
ben e
mo bile</w>
geist es
i rischen</w>
be weis</w>
passagi ere</w>
herren haus</w>
aus sicht
3 .000</w>
bor ough</w>
po p</w>
kon sum
tär en</w>
di cke</w>
u we</w>
feri en
at ri
an sichten</w>
an lehnung</w>
jimm y</w>
fest ungs
adels geschlecht</w>
ab sich
r t</w>
ge stein</w>
illu stri
b ann
verbess ert</w>
römi scher</w>
chem nitz</w>
stä tigkeit</w>
voll endet</w>
zi g
stütz punkt</w>
pro be</w>
alter s</w>
di erung</w>
os lo</w>
ca -
cht ungs
beheimat et</w>
on nen
an alog</w>
sti tel</w>
bil li
ab sicht</w>
sin ga
ng c</w>
reeder ei</w>
geschi eht</w>
war n
ll y</w>
af el</w>
konsu l</w>
he l</w>
mör der</w>
lu zern</w>
gord on</w>
schö ne</w>
ktivi tät</w>
stra fen</w>
über wie
veranstal tungs
pa cifi
t ry</w>
lekt u
geb un
d l
eth nischen</w>
eigen ständigen</w>
infanteri e</w>
vi erung</w>
über trug</w>
tre ue</w>
gleichnami ge</w>
ernä hrung</w>
ła w</w>
wen dung</w>
kei t
sp reis</w>
zeu gt</w>
gi tter
w rest
gegenwär tig</w>
an führer</w>
är m
entschei dungs
zei len</w>
pi ani
kandidat ur</w>
nu kle
a w
i x</w>
en dung</w>
châ te
besch lag
am or
ani m
ge lei
sk rie
the orien</w>
rech ter</w>
to ire</w>
komple xe</w>
zi al
stu fen
lo ire</w>
mit tag</w>
pra ger</w>
al gorith
z ist</w>
vf l</w>
gewä ssern</w>
kais ers
zeitwei lig</w>
re z</w>
landes straße</w>
gegen einander</w>
color ado</w>
empf angen</w>
porträ ts</w>
international es</w>
basili ka</w>
el te</w>
kor ri
an z
hoh em</w>
bahnhof s
zi em
ru der
rö hre</w>
kün fte</w>
mar x</w>
ud ssr</w>
arbeits gemeinschaft</w>
anzu treffen</w>
beglei tung</w>
vergröß ert</w>
situ ationen</w>
ku li
ra sse</w>
bil des</w>
en der
c oll
bu il
br annte</w>
an bieter</w>
sch malen</w>
her o
häufi gsten</w>
se con
bewer tet</w>
teri e</w>
sprach lich</w>
glo b
individu en</w>
kriti ken</w>
sch ale</w>
dem entsprechend</w>
stür zt</w>
größ erer</w>
gr ön
munici pio</w>
her zustellen</w>
wähl ten</w>
tä tigen</w>
privi legi
con fer
braun e</w>
u fer
kär nten</w>
geb ür
rich tig</w>
schwar zen
profi l</w>
scho ss</w>
tier ende</w>
ri co</w>
nieder schla
intel lektu
afgh ani
ou l</w>
i z
gra phie</w>
he m
gr o</w>
gewöhn lichen</w>
mer kt</w>
su pp
schwar zer</w>
die go</w>
ol en</w>
li tt</w>
ge den
en ger</w>
ann y</w>
pro gressi
fili al
n r</w>
mat ur
beoba chtung</w>
de la
prei sträger</w>
ni ce</w>
ba sti
europ apo
st ollen</w>
thr on</w>
ø r
ost seite</w>
bundes staaten</w>
pro tag
gru ben
stadt teile</w>
krank heits
gie bel
elektroni sche</w>
ober ste</w>
m eine</w>
deu ten</w>
schiff fahrt</w>
an statt</w>
sa vo
brasili anischen</w>
gen des</w>
wies en
neu -
oli thi
verteidi gte</w>
sta si
sign ale</w>
mali gen</w>
kauf en</w>
g län
bur gische</w>
p lus</w>
kam m</w>
überzeu gen</w>
commun es</w>
sym pathi
kunst geschichte</w>
ab raham</w>
du ke</w>
chromo som
schna bel</w>
mexi kanischen</w>
beg ab
europä ischer</w>
dan ce</w>
clar k</w>
ö vp</w>
basi erte</w>
sani ert</w>
mön che</w>
wochen ende</w>
einzi gar
kon si
zahl ungs
kam p
dé partements</w>
schle ch
k f
vo gt</w>
14 0
schi ckte</w>
tt a</w>
natur denkmale</w>
gesch mü
akti ons
notwen digen</w>
entfern ten</w>
kohlen stoff
vor zeitig</w>
austri a</w>
ab len</w>
ssyst eme</w>
ge wehr
dor othe
mittel -</w>
netz es</w>
y en</w>
onn enen</w>
moder ator</w>
ver glichen</w>
päpst lichen</w>
be schul
achtel finale</w>
teilneh mer
west licher</w>
fäch er</w>
c n</w>
be trag</w>
gem au
ster b
liter arische</w>
wi l</w>
pa stor
po to
aus gehend</w>
rund funk
o hr
län dlichen</w>
anwesen heit</w>
är a</w>
ma x-
glau bt</w>
inszen ierung</w>
techn ology</w>
t ations
kur fürst</w>
val en
führ er
hü l
a ser
ul tra
kirch liche</w>
gel be</w>
ge flo
zwei ge</w>
matri x</w>
ku bi
an grei
erkennt nisse</w>
bän den</w>
l u</w>
no bel
rück seite</w>
ander son</w>
strupp en</w>
car bon
an ony
r ale</w>
mä chte</w>
1 15
jubilä um</w>
em ann</w>
g lu
5 0-
ex pressi
bi as</w>
betre ute</w>
a sk
pau lo</w>
wen de
ers dorf</w>
philipp inen</w>
mal ers</w>
sha ke
ra pp
hi mm
an s
bet on</w>
ni ca</w>
kanz ler</w>
geschicht lichen</w>
far m</w>
cor n
nord- süd-
stan ley</w>
bour g</w>
r er
nor di
po k
ada ms</w>
pre diger</w>
. /
neg ativ</w>
s ut
an y</w>
gol f
th an
k ten
pu er
be y</w>
b ären</w>
g mati
char lie</w>
ko ch
hel d</w>
franc esco</w>
zür cher</w>
ste ck
diesel be</w>
tä glichen</w>
bom ben</w>
ro ter</w>
augu stin
staat ssekretär</w>
k le</w>
f alter</w>
d j
ger ten</w>
minister präsidenten</w>
wei hte</w>
ver pf
jur a
forts etz
lei terin</w>
be ge
16 -
sa kri
qu er</w>
cou ver</w>
kon sol
ten ne
van couver</w>
kal ten</w>
be et
vor fahren</w>
e ul
ri ck
auf er
schau spiel</w>
general sekretär</w>
stimm te</w>
per man
a chi
mounta ins</w>
178 9</w>
v ens</w>
wi dri
schu h
ra ket
mauri ce</w>
tex ti
lei chte</w>
v á</w>
ries en
fre e
ken ne
zahl ungen</w>
na chts</w>
ka sten</w>
zerstör er</w>
ent ei
an schlag</w>
sp endete</w>
gottes dienst</w>
gre mi
er teilt</w>
pian ist</w>
ri er</w>
f u</w>
epo che</w>
zu ver
gh t
vorstands mitglied</w>
institu tion</w>
verschw ör
verli ert</w>
glo ck
häft linge</w>
wohn ten</w>
tur ms</w>
reich weite</w>
pflanzen art</w>
en /
phili p</w>
entertain ment</w>
er lernte</w>
ta un
ma il
h k</w>
hol ding</w>
vert rie
n in
wohn häuser</w>
verpflich tung</w>
anfän glich</w>
mär kte</w>
f elt</w>
nation ali
to te</w>
ober österreich</w>
tour isten</w>
ta ine</w>
ste tig</w>
star ker</w>
hü ll
santi ago</w>
man ö
bb c</w>
179 2</w>
ci erte</w>
bedeut end</w>
vertra ges</w>
in do
ha ag</w>
bu ff
kontinui erlich</w>
isra eli
mön chen
ver mittelt</w>
konfli kte</w>
absol vieren</w>
deleg ation</w>
ar ka
kan als</w>
and s</w>
er läu
stett in</w>
auf stiegs
biografi e</w>
unter grund</w>
re son
atlan tik</w>
la gen
heim -
erlau bte</w>
edin burgh</w>
kerami k</w>
inneh atte</w>
ham burg-
gel äu
freiwilli g</w>
mar co</w>
diplo mat</w>
assi stenz
for dern</w>
zei ger
techni scher</w>
melo die</w>
b oni
verabschie det</w>
rechts wissenschaft</w>
nom in
car d</w>
fl ut
schrift lich</w>
k ō
brei s
v am
le gend
he ut
spiel betrieb</w>
sp ö</w>
ang li
unterrich ts
gegen zug</w>
wich tiges</w>
rau t</w>
annäher nd</w>
ku ba</w>
ger et
th -
christop her</w>
sch wal
vf b</w>
sch ran
er z</w>
bu kar
mit arbeiter
stamm es
ma di
wupper tal</w>
pun kte
zu stande</w>
wahr en</w>
vize -
sprun g
schn elle</w>
kauf män
conne cti
studen t</w>
stei len</w>
fuß gän
é cole</w>
met al
jewei lige</w>
2016/ 17</w>
mel de
gru ben</w>
auf schwung</w>
ein teilung</w>
zylin der</w>
detro it</w>
bedin gung</w>
tra gs
hin gerichtet</w>
ge sperrt</w>
for st</w>
shake spe
z y</w>
legislatur periode</w>
wieder vereinigung</w>
t ung
lar ven</w>
tion al</w>
de pressi
mo dern</w>
ko so
or i</w>
gesch altet</w>
jahr el
j r.</w>
dynami k</w>
braun en</w>
behaup tet</w>
na d</w>
legi on</w>
ange trieben</w>
gen re</w>
erheb lichen</w>
all ein
fra cht
e mili
an ts</w>
erfolg reicher</w>
am tliche</w>
sk un
man gels</w>
cul tur
mo de</w>
bm w</w>
trenn te</w>
un der</w>
ein gesetzten</w>
zz i</w>
sport verein</w>
ent schä
wa sch
europam eister</w>
1 14
vor ran
silber nen</w>
präsident in</w>
l loy
zu ständigen</w>
va s
vertrau en</w>
politik erin</w>
hunder t
ol s</w>
ff s</w>
tär e</w>
lang jährigen</w>
ressour cen</w>
ka bel</w>
eventu ell</w>
bibliothe ken</w>
ober flächen
r s</w>
der ungen</w>
la c</w>
aposto lischen</w>
splä tze</w>
über ge
vereinbar ung</w>
ein -</w>
skla ven</w>
sti ch</w>
op fer
benö tigte</w>
ex pon
differ enz</w>
absol viert</w>
ver dacht</w>
cy c
ur aufgeführt</w>
gän zlich</w>
stärk ste</w>
sex tre
vö geln</w>
sch on
ber -
beträ cht
schwa ben</w>
antar ctic</w>
qué bec</w>
gän gig</w>
letz terer</w>
zister zien
or der</w>
ges ä
regi erungen</w>
ex pli
bir ken
wohn en</w>
ra chten</w>
wi g</w>
fä hre</w>
ed o</w>
kal ender</w>
lu ise</w>
na s
grä ben</w>
einfa cher</w>
e sia</w>
organi sierten</w>
gar anti
in stand
prei ses</w>
200 6/07</w>
nieder lagen</w>
kinder -</w>
gemeinnü tzi
pi stol
m p</w>
oll en
wiscon sin</w>
s qu
schnei den</w>
öff nen</w>
verscho ben</w>
vie w</w>
ki -
nachbar orte</w>
mel bourne</w>
refer en
g /
auf tre
je kt</w>
erdbe ben</w>
df b-
lü becker</w>
ör tliche</w>
an bindung</w>
gemä ßi
gel der</w>
aus lö
frü her
4 50</w>
mar s
lern t</w>
bi bel
bischofs weihe</w>
beginn end</w>
tet ra
schmu ck
rei ter
p ani
mar qu
d son</w>
kun sta
bak terien</w>
ver di
caf é</w>
be y
trei ben</w>
süd korea</w>
auf fällig</w>
verbün deten</w>
nor men</w>
hil de
f o</w>
ägyp tischen</w>
ke y</w>
verwand te</w>
mit ter
lo b
mauer werk</w>
verbrei teten</w>
p am
mäch tigen</w>
austra gung</w>
minder heit</w>
kie fer</w>
unver ändert</w>
schi ffi
teri um</w>
gehör ende</w>
stei gung</w>
sing le
wettbewer bs</w>
artill erie
po l</w>
al ban
wü ste</w>
schle pp
voll ständigen</w>
ähn liches</w>
er gaben</w>
aktien gesellschaft</w>
eini gung</w>
tra inierte</w>
zu gewiesen</w>
sar ah</w>
blü te</w>
identi fiziert</w>
ur sachen</w>
antar kti
beha art</w>
zei tige</w>
interes siert</w>
druck s
kehr ten</w>
sizi lien</w>
niem and</w>
giu se
divisi ón</w>
bai dsch
ver wü
k han</w>
fizi eren</w>
zd f</w>
hil desheim</w>
a bel</w>
bre mer
ba ches</w>
won ach</w>
spani sch</w>
es ch</w>
entwick l
staatsanwal tschaft</w>
zu grunde</w>
re spe
produ zieren</w>
lor enz</w>
unter stand</w>
sa ck</w>
vi ii.</w>
skulp tur</w>
baro ck</w>
13 00</w>
höchst geschwindigkeit</w>
schö nen</w>
ka bel
c es
schaft lichen</w>
un ruhen</w>
monum ent
wir ft</w>
gelern t</w>
ein heits
äuß ersten</w>
organis ations
ausge liefert</w>
on el</w>
bek amen</w>
st ani
a er
co ck
sp alten</w>
schwe fel
drei e
ge fun
ober seite</w>
beg ünsti
wir kten</w>
ko oper
erwachsen en</w>
untersu chte</w>
jan a</w>
ange wendet</w>
zi e</w>
tt i</w>
roll en
kar a</w>
interpre tiert</w>
mosk auer</w>
berühm t</w>
ba h
stal t</w>
nach lass</w>
tion s</w>
flan ki
ge druckt</w>
neg ative</w>
aser baidsch
baro cken</w>
re bel
kol li
1 18
ermitt lungen</w>
cop a</w>
er lichen</w>
chen -
ver a</w>
la s
ch o</w>
ereig nissen</w>
ran ge</w>
debat te</w>
mississi ppi</w>
zwi ck
di sch-
p es</w>
j el
si tion</w>
länder spiele</w>
wa li
am o
me li
hu bert</w>
vor lagen</w>
mehr heitlich</w>
austra lische</w>
r einer</w>
wa chen</w>
se cre
hom e</w>
weih bischof</w>
haupt quartier</w>
stabili tät</w>
eigen s</w>
kon sul
auf trat</w>
l ett
ini scher</w>
abge bildet</w>
heut zutage</w>
wär me</w>
ira k</w>
fest land</w>
eintra cht</w>
gro ss
bi ographie</w>
entschei denden</w>
lau sitz</w>
jahrhunder ten</w>
s es
p c</w>
g gen</w>
teilneh mern</w>
berech net</w>
bedeutend ste</w>
verb rauch</w>
re lief</w>
sal om
pro -
mali ge</w>
di o</w>
porträ t</w>
kana discher</w>
stadtzent rum</w>
ho p</w>
moder ner</w>
militär dienst</w>
kti sch</w>
stei gert</w>
mittel meer</w>
aufge listet</w>
drei eck</w>
vorheri gen</w>
erwer ben</w>
re gent
na del
lüne burg</w>
t rennen</w>
ren ce</w>
m all
ada p
li st</w>
inva sion</w>
auswär tigen</w>
land straße</w>
lager s</w>
beoba chtungen</w>
vin cent</w>
absol ute</w>
pre s
desig ner</w>
chen e</w>
rück gang</w>
ab seits</w>
indi ana</w>
kommen d</w>
ger manischen</w>
b ord
179 9</w>
schlu s
badmin ton
johan ne
be fra
sch ür
israe lischen</w>
h end
kat alog</w>
bur schen
ent würfe</w>
fest es</w>
nutz er</w>
a ceae</w>
p lu
pa ck
schwe discher</w>
russ lands</w>
lat einische</w>
will y</w>
steigen den</w>
ne unten</w>
flä chi
boo ts
un möglich</w>
kie w</w>
gründungs mitglied</w>
exper ten</w>
c ell
fabri k
be wäl
hy gi
ru ssen</w>
ger tru
komman dos</w>
sach ver
14 ,
vor bei
effe kte</w>
memori al</w>
stadt mauer</w>
on d</w>
holl än
gi tter</w>
basi s
ele y</w>
christ ine</w>
194 0er</w>
mein t</w>
eri k</w>
norda fri
gerech tigkeit</w>
ch ry
bar a
gebrau cht</w>
quar tett</w>
katastro phe</w>
kultur denkmäler</w>
fre e</w>
connecti cut</w>
geben d</w>
ther s</w>
min en
2 1-
min a</w>
jap anischer</w>
feu ch
gün sti
ver folgte</w>
mittelalter s</w>
konstantin opel</w>
justi z</w>
inhaf tiert</w>
richt linie</w>
prinzipi en</w>
nieder ländischer</w>
bau denkmäler</w>
rhein land</w>
tha r</w>
goet he
orient ali
fußball- weltmeisterschaft</w>
ar o
ungs zeit</w>
s y</w>
ab fahrt</w>
ga be
nor male</w>
fal sch</w>
ñ a</w>
e con
ver seh
b org
nov a</w>
ari sto
mitglie der
oxi d
erzeu gung</w>
dan t</w>
elektroni schen</w>
bran dt</w>
bi sche</w>
pa aren</w>
klö ster</w>
haupt straße</w>
mil y</w>
meeres spiegel</w>
sport arten</w>
umst rit
aus nahmen</w>
berühm te</w>
jan e</w>
schau er</w>
19 -
s ün
fähi gen</w>
bi k</w>
will i</w>
sy no
riv alen</w>
ari scher</w>
reali tät</w>
ni ens</w>
üb liche</w>
geschle chts</w>
mei st
aus ländischen</w>
mediz iner</w>
etab liert</w>
drän gt</w>
a pa
nach weisen</w>
bu sch
le er
veränder te</w>
stati sti
kon fron
passi ert</w>
kin gs</w>
brei ter</w>
lan s</w>
ma y</w>
ku b
verwal ter</w>
li an</w>
um stände</w>
schi cht
unser er</w>
ver folgen</w>
ki e</w>
lo h
geist liche</w>
gat tin</w>
frequ enz
pacifi c</w>
ster -
ri ca</w>
grafi e</w>
beruf lich</w>
schei ben</w>
zahl en
ju st
wider stands
wander weg</w>
positi ons
kapi tali
ak te
spe yer</w>
de e</w>
ant wer
kilo gramm</w>
führ ers</w>
erwähn te</w>
besonder es</w>
führ ender</w>
erwachsen e</w>
cro ss</w>
groß -
d schi
verb rech
h allen</w>
fein d</w>
b aus
kö pfe</w>
a kte</w>
7 50</w>
e chte</w>
ß er</w>
minister in</w>
zurück kehrte</w>
kat aly
en do
abri ss</w>
har ri
zeitgenössi sche</w>
l p</w>
p ert</w>
geschwi ster</w>
ol den
pat ent</w>
mm .</w>
mecklen burg</w>
sp ons
kamer as</w>
vä ter
bs g</w>
/0 6</w>
chi ef</w>
öff nungen</w>
hoh es</w>
comi cs</w>
bel grad</w>
wi cz</w>
wi ck</w>
neu bau
har a</w>
ost see</w>
mo tto</w>
pro ben</w>
de vel
sch ema</w>
rö nt
lös ungs
z ar</w>
wal ther</w>
fort gesetzt</w>
an sätze</w>
m or</w>
il leg
ges ungen</w>
qu anten
bil der
del le</w>
pe te</w>
ferr ari</w>
freund schafts
t raum</w>
gött in</w>
nachbar n</w>
play offs</w>
mach ung</w>
to de
tran spar
guine a</w>
ger äu
abgrenz ung</w>
v g</w>
giuse ppe</w>
wall fahrts
ges endet</w>
shan g
sen kre
oze an</w>
ly ri
lie der
sech ste</w>
glo bal</w>
säu ge
st el</w>
frem den</w>
y os
stär ken</w>
kurz film</w>
: 00</w>
zwei fel</w>
k w-
zusammen bruch</w>
pat h
geschma ck</w>
hur ri
die jenigen</w>
com ed
berech tigten</w>
ökon omie</w>
genommen en</w>
tra iniert</w>
lo t</w>
bukar est</w>
7 ,5</w>
ver an
gi er
fernseh serien</w>
veget ation</w>
super -
fla ch</w>
e chten</w>
länder spiel</w>
dokumentar film</w>
wahr genommen</w>
bean tra
179 7</w>
phän om
schwi mmen</w>
pa ge</w>
ra j
ro tter
gül tigen</w>
benutz te</w>
hin blick</w>
179 5</w>
al f
mar s</w>
ho u</w>
sal z</w>
lo kali
ho t</w>
bru ce</w>
ni chol
to des</w>
laub blätter</w>
mel odi
wor fen
o der
po wer
kom mens</w>
rake ten</w>
entschei dende</w>
li mou
ri ga</w>
progra mmen</w>
schwe mm
po i
marc el</w>
unter arten</w>
se ktor</w>
pet rus</w>
notwen dige</w>
land tags</w>
g ne-
z on</w>
sta d</w>
ver weist</w>
lehr en</w>
samm ler</w>
über setzungen</w>
prä sent
sch um
vor geschlagen</w>
re kru
phän omen</w>
pädago gischen</w>
norman die</w>
se ver
prakti sche</w>
mär chen</w>
abenteu er</w>
philoso phen</w>
seni or</w>
gesellschaft liche</w>
a z</w>
i .
vor aus
nei gung</w>
h u</w>
sti erte</w>
sch ach</w>
gestif tet</w>
staus ee</w>
sen ders</w>
lie u</w>
ur -
auf nahm</w>
über greif
s r
kell er
uhr zeiger
kin des</w>
genü gend</w>
fries land</w>
ere gi
bemerkens wert</w>
bassi st</w>
kl er</w>
bör sen
fu hr
kriegs gefangenschaft</w>
entwick ler</w>
ständi schen</w>
gefall enen</w>
scien ce-
kan onen</w>
deut lichen</w>
rech en
mo sai
contin ental</w>
ne ffe</w>
charakteristi sch</w>
wat er</w>
vo s</w>
ver ei
spar k</w>
s ven
mech anische</w>
man tel</w>
bit tet</w>
lo i
al t-
asse ss
kop f-
i ̇
di us</w>
bahn höfe</w>
unter gang</w>
bun g
ab lehnung</w>
wei hung</w>
dom iniert</w>
bunde skanz
da hinter</w>
ati vi
diale kt</w>
ru ft</w>
e /
gu il
inner ungen</w>
er hob</w>
juristi sche</w>
geomet rie</w>
win a</w>
s -</w>
ge klärt</w>
anspru chs
lut her</w>
er ster
sprin zi
24 -
charlo tten
staatsan walt</w>
si t
be hr
durch quert</w>
ver legung</w>
ssi tz</w>
mon ati
schar f</w>
sch metter
ka y
a ero
gär t
al tes</w>
wür di
at us</w>
ma c</w>
histor y</w>
vor träge</w>
wladi mir</w>
mat th
gesprä che</w>
d ley</w>
bör se</w>
christ entum</w>
entwäss ert</w>
aus ländische</w>
ly n
recht sextre
f et
star ten</w>
pokal sieger</w>
lo thar</w>
viet nam</w>
sin a</w>
c du-
ä qui
io wa</w>
getrei de
5 /06</w>
ah me</w>
uhrzeiger sinn</w>
stift ungs
tenne ssee</w>
fass ungen</w>
sol u
bundes autobahn</w>
ta gne</w>
o g</w>
air lines</w>
hun ger
p ant
dunkl en</w>
cha p
stra fre
national spieler</w>
en deten</w>
drü cke</w>
nachkriegs zeit</w>
mechani smus</w>
gan s</w>
folge jahr</w>
th re
dun kel</w>
nass au</w>
ad jut
komple xen</w>
ver langt</w>
zunehmen den</w>
proto typ</w>
markt es</w>
gesch riebenen</w>
reformi erten</w>
hun de</w>
de cken
schen kte</w>
z an
künstl ers</w>
auf bewahrt</w>
eister schaft</w>
zurück kehren</w>
überle gungen</w>
pl er</w>
o sen</w>
ange stellten</w>
k äl
zi tiert</w>
k ationen</w>
neu eren</w>
voll kommen</w>
kau ka
e cken</w>
at p</w>
ken t</w>
nörd licher</w>
etab lieren</w>
tal sperre</w>
pla s
auswär ts
über sicht</w>
zi ge</w>
ver stand</w>
spe cial</w>
oper a</w>
bedin gten</w>
w eh
ba dischen</w>
nachweis bar</w>
kar ls</w>
im ple
gra fik
tz eit</w>
kultur güter</w>
4 000</w>
be absich
in schriften</w>
common we
länder eien</w>
berei tschaft</w>
positi ven</w>
ab satz</w>
hoch wasser</w>
versu ch
inn ern</w>
ben z</w>
to w</w>
u li
ber in</w>
nutz ten</w>
ka lin
sal on</w>
rake te</w>
al o</w>
li by
zu mal</w>
sp annt</w>
katholi sch</w>
dien s</w>
ko t</w>
c d-
eröff neten</w>
ad s</w>
ff el
be grä
spro du
da chte</w>
auf gebot</w>
cu p-
be li
beoba chter</w>
sub stanz</w>
zylin der-
renaiss an
wechsel ten</w>
siedel n</w>
olympia sieger</w>
fok us</w>
breis gau</w>
sprü fung</w>
ski -
sch l
vorgän ge</w>
klein ste</w>
vi kar</w>
läu fen</w>
land -</w>
sol ange</w>
herr schaften</w>
h eller</w>
er a
ru inen</w>
konzep te</w>
sk á</w>
po in
inspiri ert</w>
bo is</w>
no -
z k</w>
dorf -
ssen heit</w>
ri ck</w>
pri mä
auf nahme
pro ven
ger aden</w>
ung ssystem</w>
sport lichen</w>
ka ssen</w>
asi atischen</w>
aus einander</w>
spei st</w>
hu ber</w>
funda ment
prä gte</w>
departament o</w>
ev aku
lin -
kunsta kademie</w>
aus gelöst</w>
ath an</w>
hor ror
la y</w>
ant on
lau tern</w>
er stellung</w>
ator in</w>
rail road</w>
mönchen gladbach</w>
mi dd
se e-
gen res</w>
du l</w>
fähi ge</w>
li br
pat en
gitarri sten</w>
flori an</w>
kur i
ber na
her kömm
ha in
in mitten</w>
psych other
philoso ph</w>
bei rat</w>
differen ti
op at
di alog</w>
p an</w>
ed mund</w>
nordo st
ziem lich</w>
sul a</w>
s öl
medai llen
liver pool</w>
g lichkeit</w>
konven tion</w>
her ine</w>
konzentri ert</w>
ari zona</w>
sul tan</w>
mich el
vor mals</w>
be dar
genutz ten</w>
sen si
ausge gangen</w>
ro de</w>
ar sen
ma da
fest spielen</w>
deck te</w>
fra ktions
kinder garten</w>
sum pf
per u</w>
ber feld</w>
mittel te</w>
ste ckt</w>
gesetz lichen</w>
erweiter ten</w>
15 -
überzeu gt</w>
teil nahmen</w>
staat lich</w>
proble m
play- offs</w>
bele gten</w>
rau ch
si ven</w>
lei che</w>
bezir ken</w>
bau art</w>
á s</w>
ke vin</w>
zwei fel
schaft liche</w>
gra t</w>
sie ger
k nüpf
selten e</w>
get auf
verkehr t</w>
dorf kirche</w>
ch at
est land</w>
zwei thöch
fernseh sender</w>
cy clo
berei chs</w>
werkzeu ge</w>
fas ern</w>
vorberei tet</w>
friedrich s
be tragen</w>
tol er
e ger</w>
179 6</w>
pla ce</w>
eri e-
mei len</w>
stei le</w>
nord östlichen</w>
popul arität</w>
da i
zent ral</w>
c tus</w>
e sischen</w>
10 1</w>
mun dar
flu r</w>
verfass er</w>
regi e
persön lichkeit</w>
don ner
mu skel
schul zeit</w>
anwen dungs
2 9
äl en</w>
stä mmi
rück spiel</w>
hü tten</w>
gn on</w>
em an</w>
tradi tionen</w>
liber ale</w>
vor standes</w>
ai l</w>
ab wärts</w>
w hit
weiß er</w>
kapi tul
er bach</w>
ange wiesen</w>
auf s</w>
a gri
bau zeit</w>
kan al
mein te</w>
pro por
phili ppe</w>
handel s</w>
depart ment</w>
schwä bischen</w>
in c.</w>
hil de</w>
ab schluss
nü pfen</w>
ordent licher</w>
glau bens</w>
science- fi
sol ches</w>
neuseel än
nachbar schaft</w>
besu chern</w>
li ve
cki g</w>
an na
cap tain</w>
ha v
fl y
ver öffentlichen</w>
g abri
verschle chter
fi s
x i</w>
ko p</w>
hir n
für th</w>
film -
nen s
dre hen</w>
mr d.</w>
ab fall
süd westlichen</w>
war t
qu anti
logi k</w>
rab bin
mel an
zuge sprochen</w>
wör ter
astron omen</w>
rin ge</w>
mel dung</w>
nel son</w>
ein ladung</w>
enga gements</w>
weis ungen</w>
ei sernen</w>
hör t</w>
g nis
diskus sionen</w>
geschwindi gkeiten</w>
om ni
ab bruch</w>
übersetz er</w>
norwe gische</w>
or le
jam ai
interes sierte</w>
e cu
ver gabe</w>
um gestaltet</w>
pa li
lie fen</w>
er m
nen nens
at hen
sh a</w>
zi ff
wer ker</w>
urugu ay</w>
ro m
li en
14 00</w>
parlaments wahlen</w>
charak tere</w>
so bald</w>
cru z</w>
da ve</w>
nach lässi
ber k
staats bürgerschaft</w>
laus anne</w>
he ck</w>
phi l.</w>
col a</w>
schrift liche</w>
vari et
sa c
leiden schaft</w>
eingemein dung</w>
bestand teile</w>
micro soft</w>
bro t</w>
turni ere</w>
ra m</w>
zunehmen de</w>
ra ff
sier ra</w>
sen e
min den</w>
er lö
beruf lichen</w>
be freien</w>
ant es</w>
201 7/
süd östlichen</w>
schutz es</w>
f lich
178 4</w>
sommer spiele</w>
s wa
refer ent</w>
blan ken
bar t
for est</w>
ex amen</w>
ck et</w>
fin gen</w>
schi en</w>
fizi erten</w>
be fahren</w>
ant ritt</w>
herrsch enden</w>
uns ere</w>
2 2
kran z</w>
grund stein</w>
wirtschafts lehre</w>
tun nel
p es
ze d
inform atik</w>
diplom -
pro vo
fel den</w>
ann schaft</w>
179 1</w>
formel- 1-
ver wan
n on</w>
l d
prei sen</w>
behäl ter</w>
skla sse</w>
t chen</w>
spani er</w>
ha li
dekan at</w>
sout hern</w>
lu f
itali ens</w>
e w
ver klein
mor ph
digi tal</w>
wör tlich</w>
geschwindi gkeits
ga t</w>
veranla sste</w>
asi en
wi der</w>
ludwi g-
ein weihung</w>
ro bo
n g</w>
flan ke</w>
4 .000</w>
krat er</w>
ö sen</w>
vol um
geni e
ni g
ther n</w>
tau ch
einge wechselt</w>
sp eri
resul tat</w>
devel op
notwen digkeit</w>
gan gene</w>
1 13
wähl er
peri oden</w>
ster nen</w>
t land</w>
stamm spieler</w>
lei ter
her s</w>
statu en</w>
de ath</w>
geb rü
zugehöri ge</w>
um wandlung</w>
schi enen</w>
bestre bungen</w>
a hr
fest genommen</w>
er liche</w>
chef trainer</w>
zurückge zogen</w>
bu chs</w>
über gabe</w>
spezi fischen</w>
rh ô
atlan ta</w>
all tag</w>
pädago ge</w>
be gangen</w>
1 17
mon tiert</w>
ein bezogen</w>
zu einander</w>
werk stätten</w>
bestimm ter</w>
re vol
lat ein</w>
kom pro
fan g
betra chten</w>
fel d-
pop -
zen z</w>
verschw unden</w>
phan ta
č i
verkör perte</w>
gä sten</w>
bahn linie</w>
ari um</w>
gri ffe</w>
ar mut
äthi op
monum ent</w>
confer ence</w>
aus wahl
klassi ker</w>
ste wart</w>
oberst leutnant</w>
gi s</w>
austra lia</w>
ur in</w>
studi ert</w>
fü llt</w>
c ran
nor bert</w>
de fe
kan äle</w>
verheirat ete</w>
hart mann</w>
angrei fer</w>
cor e</w>
sch atz</w>
fußball verein</w>
kul ti
badmin ton</w>
dat eien</w>
è ne</w>
alo is</w>
é -
nat ri
konstan tin</w>
konse krat
ko w
konta kt
re akt
pi ctur
selb ständig</w>
k entu
inter essi
lin de</w>
wirtschafts krise</w>
tan te</w>
g len
ritter gut</w>
au then
eröff nungs
box er</w>
tig ungs
stur nier</w>
be stra
lo go</w>
in sofern</w>
genehmi gt</w>
no ti
frank lin</w>
wahl recht</w>
ex klu
bus linien</w>
ape u
pel n</w>
erlei chter
dikt atur</w>
ari en</w>
pol nisch</w>
mer a</w>
über lassen</w>
tho s</w>
con t
s- bahn</w>
du blin</w>
schmie de
gast geber</w>
arabi sche</w>
wieder herstellung</w>
th esen</w>
archi v
gelän des</w>
ver ziert</w>
s m</w>
niedri ger</w>
est nischen</w>
ü mer</w>
digit ale</w>
17 80</w>
stat tete</w>
a p</w>
i da</w>
da mer</w>
15 ,
luft linie</w>
lie des</w>
num mer-
geret tet</w>
lo ck</w>
gr and-
for mal</w>
sa u</w>
popul är</w>
ti en</w>
e z
lom bar
liefer ungen</w>
gi b
10 5</w>
ap sis</w>
akti en</w>
1, 6</w>
nieder lassung</w>
ba sal
dem selben</w>
mi ami</w>
frem de</w>
der artige</w>
ange führt</w>
r uth</w>
berücksich tigung</w>
wi ce</w>
wan gen</w>
poten zi
m l</w>
lo ch
muni tion</w>
gelän de
sa kra
formula_ 4</w>
que en</w>
ma donna</w>
dire kter</w>
verein fa
plan t</w>
ober landes
mon gol
het ero
chirur gie</w>
all y</w>
stral sund</w>
lin en</w>
informi ert</w>
vor n</w>
3 6
ka ssen
hin aus
su k
schir m</w>
s le
schul d
kt uren</w>
ge fordert</w>
di r</w>
sakri stei</w>
afghani stan</w>
mi eren</w>
ern den</w>
besu chten</w>
dar stellte</w>
beauftra gter</w>
kaiser reich</w>
be achtung</w>
sprun gs</w>
sch am
äqui val
zu fällig</w>
en es</w>
plan ungs
re liqui
16 ,
gür tel</w>
su -
her zö
verstär kte</w>
sk ol
foto graf</w>
taus ende</w>
kant ons
st rän
sei lle</w>
zi d</w>
orche ster
no w
ha wa
gottes haus</w>
a x</w>
1, 3</w>
ziel en</w>
geschicht liche</w>
den es</w>
erfin der</w>
ta gebu
publik ation</w>
protag onisten</w>
erwähn ten</w>
ra -
op hi
kon den
gesetz es
ern -
v enz
stadt verwaltung</w>
st auf
lincol n</w>
griechi sch-
bundes land</w>
15 .000</w>
fa bi
c .
am tierte</w>
bemü hte</w>
ab schnitten</w>
massi ven</w>
system atik</w>
margar et</w>
c u</w>
gast ron
ele fan
bor n
auf satz</w>
ar ag
tor wart</w>
südo st
brem se</w>
be lo
sp er</w>
mit konsekrat
daten bank</w>
ch sen</w>
ver geblich</w>
scha cht
illu str
ce ster</w>
ger d</w>
aus sterben</w>
unter familie</w>
flu cht
stor y</w>
fil ter</w>
ch y
un ser</w>
groß zü
ges un
al ton
verantwor tlichen</w>
sch einen</w>
gleich ungen</w>
ig na
4 0.000</w>
tel l</w>
to t
ensem bles</w>
vor gaben</w>
still stand</w>
in stanz</w>
he mm
ber ner</w>
at o
spä t</w>
nord westlichen</w>
aufzu bauen</w>
reper toire</w>
gel te</w>
beschlag nah
s car
e ut
schü tz</w>
ll o</w>
hel fer</w>
liga spiele</w>
ro manischen</w>
ri t</w>
prä par
nicol as</w>
can adi
dokum ent</w>
erfin dung</w>
ty r
neck ar
lü b
pla r</w>
mon ats
bar thol
al and</w>
pi e
miner al</w>
yo ur</w>
taf eln</w>
sch erweise</w>
mon a
lin ker</w>
ba se</w>
sta de</w>
modell s</w>
beg ei
schrif ten
erzähl er</w>
anwal ts
volk spartei</w>
goet he</w>
magn us</w>
finan zen</w>
fra ge
erhö hten</w>
versch är
g lä
flo g</w>
ges ang
1: 0</w>
ge go
erschien ene</w>
grafi k</w>
so fia</w>
hü lle</w>
flüssi gkeit</w>
geschü tze</w>
ethi k</w>
din ger</w>
am ann</w>
offi ce</w>
j -
coun tys</w>
mitglie d
gut achten</w>
nachträ glich</w>
kämpf t</w>
auftra g
ab wesen
wer fer</w>
be fu
17 50</w>
gra de</w>
dä mpf
vari iert</w>
angele gten</w>
por sche</w>
bi ographi
mittel feld</w>
bei ge
türki scher</w>
gleich heit</w>
jeni ge</w>
a ger</w>
kardin al
in d
agn es</w>
propa gan
nr w</w>
schle sischen</w>
gelehr ten</w>
yo ut
law rence</w>
betre ten</w>
beruf liche</w>
t schu
geschwa der</w>
d g
benutz en</w>
versch lü
gren adi
fa hne</w>
wei den</w>
erober te</w>
del s</w>
pp el
augu ste</w>
fin ger
bo ck</w>
programmi er
kra kau</w>
tür ken</w>
ten e
bo ck
bedro hung</w>
200 5/06</w>
š i
ski z
di erten</w>
vi ktor</w>
süd licher</w>
gewinn t</w>
gi ft
fin i
neck ar</w>
schie fer
regierungs zeit</w>
mom ent
d utz
sprach raum</w>
sym ph
n dorf</w>
18 2
pol ens</w>
kla gen
beleu chtung</w>
len k
mittel feld
beglei t
lo k</w>
kl ä
ra dar
mehr heits
proje ktes</w>
or um</w>
ge fol
zuschau er
rech nungs
folge jahren</w>
om a</w>
schein bar</w>
landes hauptstadt</w>
flu gs
a in</w>
garten s</w>
ver laufenden</w>
lan e</w>
bin nen</w>
erbau ten</w>
emeri tierung</w>
zahl t</w>
johan ni
schmer zen</w>
amerikan ern</w>
pau lus</w>
nikol ai</w>
gewerk schaften</w>
a gent</w>
zu stände</w>
ra gt</w>
kolumbi en</w>
so gn</w>
gehän gt</w>
em ma</w>
wal ker</w>
ries ens
hyd rau
bay reuth</w>
sp hase</w>
le p
fle der
rei t
mi e
ef a</w>
in -</w>
rä dern</w>
wir ksam</w>
ral ph</w>
la sten</w>
stem per
nutz ungs
j u</w>
ähn lichkeit</w>
stan des
so phi
ange stellte</w>
versu chs
riesens l
imple men
verste ckt</w>
m l
fran chi
poli t
marok ko</w>
h enden</w>
d ut
mai l</w>
be gab</w>
mat the
sch op
geden kt
en dorf</w>
bei d
k et</w>
di chten</w>
kupp el</w>
lager ungen</w>
sport -
bou le
landes liga</w>
kentu cky</w>
ur i</w>
tau scht</w>
lö sch
alten burg</w>
prä di
m g</w>
kommand anten</w>
elec tri
wor ms</w>
so ffizi
iu cn</w>
über quert</w>
ergeb nissen</w>
o witsch</w>
et o</w>
tö ne</w>
indi sche</w>
jähri ges</w>
gering fü
kanton e</w>
go d
verli eren</w>
kaross erie</w>
gottes dienste</w>
bar i
3 8
1, 8</w>
vene zu
bor de
ver arbei
sekre tär
mitkonsekrat oren</w>
flo sse</w>
armut s
ihr erseits</w>
sä uren</w>
lin k</w>
regisseur s</w>
paki stan</w>
minde st
ha ar</w>
re y
far m
zwer g
ro w
am ts</w>
se a
th el
hinzuge fügt</w>
gewerk schafts
raket en
an ern</w>
brau cht</w>
be ach
"- arten</w>
de kre
gro ssen</w>
lau er</w>
läufi g</w>
gott lieb</w>
auf geben</w>
a er</w>
zol l</w>
ähn licher</w>
orle ans</w>
den is</w>
2 3-
kat alo
in gol
gu er
pl ur
par ade</w>
j k</w>
zi o</w>
gö tter</w>
tran skri
so s</w>
en o
bahnstei g</w>
auf gaben
mar mor
wasser versorgung</w>
ho b
ein setzen</w>
ss ler</w>
schlei fe</w>
kaisers lautern</w>
geor gi
flö te</w>
wilhel m-
wa cht
vorran gig</w>
ver dien
vermö gens
immobili en
an liegen</w>
ver mark
ch tigen</w>
is ol
wandel te</w>
mut h</w>
eisenbahn strecke</w>
ha are</w>
profess orin</w>
langs am
kommuni sten</w>
aven ue</w>
ali siert</w>
gesell schafter</w>
alb um
ł o
har mon
commonwe alth</w>
alkoho l</w>
kontinent al
za hn</w>
lass ungen</w>
elsa ss</w>
lt d.</w>
hei d
prü fen</w>
prin c
po sen</w>
kommun alen</w>
i ron
ur sula</w>
os mani
no te</w>
µ m</w>
t tet</w>
in vent
hö hlen
ko ta</w>
schön heit</w>
repräsen tiert</w>
sta sien</w>
auf sehen</w>
jor dan</w>
nord deutschen</w>
natur wissenschaften</w>
lou isi
kti v
c ô
ch ow</w>
akti ver</w>
gitar ren
ax el</w>
z art</w>
gr on
basket ball</w>
s b
ř í
ver nachlässi
bay er</w>
lloy d</w>
i t-
a ki
restauran ts</w>
erziel ten</w>
ann tes</w>
teil chen</w>
de mann</w>
über lebenden</w>
veranstal ter</w>
ein s-
primä r</w>
á r
port o</w>
fili ale</w>
param eter</w>
neur o
gelö sten</w>
stei gern</w>
wes end</w>
in betrieb
ction -
ap oll
xi on</w>
vor kommt</w>
slowa kischen</w>
3 5
der art</w>
puer to</w>
sound track</w>
kraft werke</w>
komp ati
frei tag</w>
er innerungen</w>
rüst ungs
mei ßen</w>
pfar re</w>
endgül tigen</w>
blu men</w>
glet sch
ent kommen</w>
ca spar</w>
10 0
el b
wirtschafts -</w>
p lei
or d</w>
schau m
krau t</w>
ing ton</w>
besie gt</w>
verwaltungs gemeinschaft</w>
ver sen</w>
ati ves</w>
lauf zeit</w>
vor schläge</w>
op tion</w>
berei ten</w>
- )
i wan
178 5</w>
ku pfer</w>
3 9
durchschnitts einkommen</w>
behaup tete</w>
s p</w>
ed gar</w>
ro sen</w>
go tha</w>
den der</w>
studi es</w>
ge langten</w>
erneu erung</w>
latein isch</w>
h us</w>
stü cks</w>
178 7</w>
sa y</w>
kurz fristig</w>
har ris</w>
unmittel baren</w>
neu e
diplom atischen</w>
statt findet</w>
befrei ungs
verstor ben</w>
moun tain</w>
hil ft</w>
akti viert</w>
- gesellschaft</w>
wol ff</w>
lebens weise</w>
lan den</w>
benedikt iner
auf teilung</w>
ro bin</w>
schla chten</w>
pfal z
abge schafft</w>
/0 5</w>
ko stete</w>
freu de</w>
ange wandte</w>
t wi
ab zug</w>
wei ss</w>
v é
sand stein
ehren mitglied</w>
ver i
la ch
italien isch</w>
sko je</w>
th aus</w>
sich erungs
por no
magaz ins</w>
d c</w>
t hat</w>
antwer pen</w>
kur fürst
hill s</w>
be merk
pla ces</w>
intervie ws</w>
e o</w>
emi gr
p rat
insol ven
fach hochschule</w>
anpa ssung</w>
shang hai</w>
re sten</w>
namens geber</w>
j ens</w>
ma ke
m w</w>
gesteu ert</w>
stie f
sicher heit
erst beschreibung</w>
tz sch</w>
fa cher</w>
can ada</w>
p in</w>
vi t
fi xi
zo o</w>
verni chtet</w>
stellvertreten den</w>
mary land</w>
gesch eh
wieder wahl</w>
tai wan</w>
russ ell</w>
se v
an wäl
sk al
lizen z
hoh enz
richt linien</w>
ni sch-
frederi ck</w>
journali stin</w>
statt halter</w>
hau be</w>
ar mut</w>
so hle</w>
hal bes</w>
ge ologie</w>
cott bus</w>
arti keln</w>
ameri can
musi c
tan en</w>
ssi cher
voll zogen</w>
natur schutz</w>
fe der</w>
ti v
on ismus</w>
kor de</w>
stre ben</w>
au re
n ut
erkennt nis</w>
beo bach
brun nen
basi erend</w>
wein bau</w>
wal d-
n der</w>
er stellte</w>
be mal
herausra gende</w>
ver mitteln</w>
b oris</w>
koppl ung</w>
immer hin</w>
popul ation</w>
flü geln</w>
jün gsten</w>
vi rus</w>
ac et
vor stadt</w>
thri ller</w>
18 ,
hong kong</w>
go u
e cht
grund legende</w>
am ar
lo t
haf ter</w>
wo für</w>
konserv ative</w>
grie chen</w>
beeinflu ssen</w>
wachsen de</w>
lich te</w>
stütz en</w>
mi scht</w>
hol stein</w>
brä un
b ler</w>
sal v
pom mer
ten den
konz erns</w>
m ³</w>
fre sken</w>
gr at
endgül tige</w>
ri c
klassi scher</w>
pil z</w>
abge kürzt</w>
sti sches</w>
pro stitu
spi tz</w>
tür men</w>
empf o
wer tet</w>
halten e</w>
wa -
tan k
ad van
sa kr
1: 1</w>
wander te</w>
schieds richter</w>
ri fft</w>
kap ell
gra ph</w>
wi m
ein nahme</w>
be stat
gu e-
er wiesen</w>
sla v</w>
ne ffen</w>
fre ssen</w>
bewaff nung</w>
äm tern</w>
schau platz</w>
kap ellen</w>
wa pp
ei gn
satelli ten</w>
hi tz
b u</w>
ange stre
spri tz
far ben
ein stigen</w>
welt rangliste</w>
verhältnis mäßig</w>
reich stags
em -
tal es</w>
comi c
magdal ena</w>
paläst ina</w>
hör te</w>
e -</w>
gu eri
dyna mo</w>
schöpf ung</w>
mün ze</w>
automobil en</w>
7 :
ta schen
romani sche</w>
mar seille</w>
ff el</w>
ju dent
herange zogen</w>
di sches</w>
lo w
geschaffen e</w>
bundes ländern</w>
pe ar
ta s
stra t</w>
kre bs
ra pper</w>
ham m</w>
kat zen
han g
ge strichen</w>
c lin
wor ks</w>
tal bahn</w>
gescho sse</w>
gar den</w>
bün d
schei ben
sat ur
frei mau
ti cs</w>
kt -
in fl
ne m</w>
be d
ban ki
kongre sses</w>
inszen ierte</w>
un t</w>
hi p-
pro zent
hohenz oll
rhyth mus</w>
par i
dire ktors</w>
zu ständige</w>
ma st</w>
heim lich</w>
musik video</w>
j um
evangelisch- lutherischen</w>
en ti
deck er</w>
b eit</w>
t oni
ro r</w>
parall el
grau en</w>
f ett
widme t</w>
durch gehend</w>
digit alen</w>
co s
ca pe</w>
d oll
sse x</w>
zisterzien ser
sk or
mau l
4 /05</w>
tr oni
gi t</w>
z am
pfarr haus</w>
u- boot</w>
lin den</w>
m organ</w>
der maßen</w>
i kon
zä n</w>
schmi d</w>
auf wärts</w>
analy sen</w>
ab or
ver letzte</w>
kel ch
k nö
f ati
b st
über leben</w>
zylin dri
li bre
hölz erne</w>
se kunde</w>
ro ma</w>
anstal ten</w>
mi gu
inbetrieb nahme</w>
selten en</w>
ktor in</w>
indone sien</w>
hoch altar</w>
ba li
h t
li ehen</w>
autor s</w>
der in</w>
li sa</w>
ein setz
ca s
be grü
ho heit</w>
ra in
l li
a do
performan ce</w>
w etz
engine ering</w>
me d
portugie sische</w>
cal ci
co burg</w>
schwan ger
genommen e</w>
geographi schen</w>
trit ts
t ationen</w>
ka sach
tschechi sche</w>
profess oren</w>
gewer b
abge tragen</w>
verhalten s
sl alom</w>
dun kle</w>
so for
rech nen</w>
di ch
nieder schlag</w>
ge sto
unterbrech ung</w>
inhal tlich</w>
coun tr
mo zar
li tho
be weisen</w>
ren ault</w>
sain te-
hen ne
fin ster
bulgar ischen</w>
disk ri
tim or</w>
sol ar
we ges</w>
vor würfe</w>
unter art</w>
ungspro zess</w>
er lassen</w>
ce d</w>
12 -
versch winden</w>
gen z</w>
schmer z
regi erte</w>
k lingen</w>
di ff
spoli zei</w>
ction s</w>
mäd chen
musi kt
kast ell</w>
wissenschaft lern</w>
sprech erin</w>
materi als</w>
be strei
räum lichkeiten</w>
propa ganda</w>
clar a</w>
leb zeiten</w>
mein ungs
o ver</w>
byzant inischen</w>
schrö der</w>
fest spiele</w>
kunst stoff
sh -
süd tirol</w>
ein stieg</w>
no ten</w>
gen ten</w>
e wald</w>
heinrich s</w>
ha -
1 16
zur i
theore tische</w>
po s</w>
la bels</w>
selb ständigen</w>
fünf ter</w>
er stellen</w>
ren e</w>
stif tete</w>
pass au</w>
w eine</w>
lü cke</w>
ti mor
serbi schen</w>
re cor
fi x</w>
betrie bs</w>
gu y</w>
kircht urm</w>
lu g
bi g
äl tester</w>
song wri
of -
c c</w>
super inten
erober n</w>
ho benen</w>
win det</w>
ver ti
protestan tischen</w>
za gre
schil dert</w>
zimmer mann</w>
gra ham</w>
schwä ch
isla mi
aus sicht</w>
rönt gen
1 1.
stadt teils</w>
gewal ts
blö cke</w>
te at
ge ographie</w>
bolo gna</w>
hoch wer
slo wen
ä qu
sp alte</w>
bezahl t</w>
phil li
market ing</w>
schu b</w>
brin gung</w>
wahl periode</w>
hei den
schle chter</w>
n annten</w>
roman en</w>
ka sten
national rat</w>
kirchen gebäude</w>
gra s</w>
a hm
hand werker</w>
urugu ay
san t</w>
rei chtum</w>
u efa</w>
kloster kirche</w>
sie mens</w>
ge standen</w>
gremi um</w>
3 3
zer ti
verstän dlich</w>
kommun en</w>
seel sor
schei de</w>
ernä hren</w>
bom be</w>
stu ck
go od
eri sches</w>
moti ven</w>
vor an</w>
vermu ten</w>
no ten
hin g</w>
grei fung</w>
star teten</w>
li v
2 20</w>
á l
j ó
an halten
an grenz
ann eh
anerk annte</w>
wor ks
tat ort</w>
bo w</w>
fa ser
na sen
ak s</w>
lo b</w>
m utz
genutz te</w>
ab schied</w>
h oni
be schi
techni ker</w>
austra gungs
verb racht</w>
kell y</w>
empf unden</w>
rück stand</w>
par asi
ur sprungs</w>
pri vat</w>
her ze
über blick</w>
strö mung</w>
man date</w>
ein her
bo d
ar te</w>
wett kampf
gebo ten</w>
menschen rechte</w>
eri a</w>
konkur ri
ausge spielt</w>
tt chen</w>
st ok
unglü ck
stun den-
spe kta
lin g-
ein g</w>
verein t</w>
pensioni erung</w>
maximili an
ig i</w>
zieh ung</w>
jon athan</w>
v ei
o kla
fehl enden</w>
klassen erhalt</w>
gele gte</w>
bundestags wahl</w>
zu gs</w>
ges en
relief s</w>
mat ch</w>
lie bt</w>
kaiser liche</w>
dorothe a</w>
ü l
u a</w>
wieder gewählt</w>
empfän ger</w>
spun kte</w>
ange fertigt</w>
co ck</w>
west fal
kno ten
frem den
chi e</w>
wander n</w>
de put
ru e</w>
kul t
stra hlen
x vi.</w>
positi oni
wett kampf</w>
herrsch te</w>
ba i</w>
rotter dam</w>
lie uten
ge fahr
00- meter-
t rän
gewähr t</w>
geseh ene</w>
ar chen</w>
sch male</w>
c ler
unter zeichnet</w>
pil ger
mi -
bi tte</w>
ad vent
teili ge</w>
prakti schen</w>
ö se</w>
st ori
l ju
ernä hr
durch zuführen</w>
doppel te</w>
1, 4</w>
hou ston</w>
haupt runde</w>
komponi ert</w>
humbol dt-
bri d
fla che</w>
ein setzte</w>
dra matur
c ant
bab y</w>
funktion är</w>
basket ball-
af fen
geb lie
s ler</w>
ra d-
militär s</w>
formula_ 5</w>
west küste</w>
vorge worfen</w>
ol d
lu cas</w>
avan cierte</w>
inter nen</w>
at las</w>
178 6</w>
pro fil
an spiel
letz teres</w>
sti k
di ch</w>
bel gi
ange stellter</w>
entfern te</w>
tr é
qu ellen
gat ten</w>
test es</w>
hit lers</w>
we y
rol y
denkmal pflege</w>
i tz</w>
ge fasst</w>
pf el
sch ur
stei ger
lau ra</w>
anschließ ende</w>
heim spiele</w>
glat t</w>
dien er</w>
vari ablen</w>
ti oni
industri elle</w>
organi schen</w>
heili gt
her zen</w>
a a</w>
vel and</w>
num meri
komb iniert</w>
per u
explo sion</w>
178 8</w>
schu he</w>
la c
bet ten</w>
sloweni en</w>
ray mond</w>
n ett</w>
gu n</w>
rin gs</w>
markt platz</w>
bundes ministerium</w>
berichter stattung</w>
di ll
schul ter
ben d</w>
ein gang
ba ker</w>
caro line</w>
za ch</w>
teil genommen</w>
mön ch</w>
c su</w>
tochter gesellschaft</w>
han au</w>
durch gesetzt</w>
be acht
aus stat
ro ß
musikali sch</w>
anto ine</w>
neum ar
ho s</w>
eig nung</w>
wachsen en</w>
kür zer</w>
mon t-
k olo
er ringen</w>
erst ein</w>
pa vi
erwar ten</w>
deck ten</w>
mo os</w>
le v
kavall erie</w>
bli tz
178 3</w>
luther ische</w>
i er
gefü hle</w>
milli metern</w>
gewähr leisten</w>
öffent licher</w>
um bauten</w>
bun ker</w>
län gste</w>
druck erei</w>
li er
k h
wei test
pro gno
b räu
z ten</w>
empi re</w>
je kte</w>
ro ch
ne ws</w>
sam t
l ords</w>
wieder aufstieg</w>
heu tiger</w>
servic es</w>
sc ri
del ta</w>
lin o</w>
ju di
qu ed
schriftstell ers</w>
lauf s</w>
kein es
scheiter ten</w>
fär ö
staat s</w>
industri alisierung</w>
la ser
abwesen heit</w>
häu pt
fin e</w>
wider stand
schö n</w>
ä ischen</w>
zeu g
prote st</w>
e vi
ober schule</w>
b l</w>
zu ordnung</w>
singa pur</w>
kol lege</w>
j ets</w>
et in</w>
ent ran
leon hard</w>
erwar tungen</w>
tari f
ss y
bo l</w>
geeig neten</w>
stipen di
aspe kt</w>
wat er
liechten stein</w>
fall s
un zur
tun n
gesta po</w>
trau er
at ti
se at
m um
joh an</w>
er mitteln</w>
spe kul
ge zielt</w>
broo kl
kamer amann</w>
musli me</w>
akti v
publi kum
dro hte</w>
sp oren</w>
dä mm
schlu cht</w>
kräf tig</w>
im por
deut ung</w>
zeit alter</w>
sho ws</w>
flug gesellschaft</w>
fo ur</w>
wei de</w>
op position
übri g</w>
ei förmig</w>
cou sin</w>
re h
mon tene
provin zial
betra chtung</w>
nummer- eins-
kontrol liert</w>
wri ght</w>
ni gen</w>
auftra gs
koordin aten</w>
weiter geführt</w>
grundle gend</w>
lehr ern</w>
pa t</w>
ge mah
ma hn
a hn
rt l</w>
verwand tschaft</w>
tur ner</w>
sa v
l ung
gra phen</w>
über siedelte</w>
kon ser
en falls</w>
beton te</w>
zeu gnis</w>
genau i
fernseh film</w>
b rat
vor liegen</w>
is lands</w>
gest ell</w>
antoni us</w>
go tik</w>
sp at
geschäf ten</w>
b ine</w>
süd kore
galaxi e</w>
sh ō
berat ungs
pfa hl</w>
passa ge</w>
früh ling</w>
je mand</w>
ret tung</w>
ä ten</w>
ri c</w>
fern ando</w>
bla son
p ab
mu r</w>
hum an
entschei det</w>
sport liche</w>
mal a
evangeli scher</w>
einhei tlich</w>
zentral er</w>
ver tie
legi ti
g p
ver gewal
pet ers</w>
individu elle</w>
aufent halts
regul äre</w>
d h
con test</w>
kop ie</w>
ot ta
pro spe
ber fläche</w>
stif ts</w>
ge deckt</w>
fusioni erte</w>
einge leitet</w>
pa ssen</w>
genu a</w>
drit tes</w>
chi len
durch gang</w>
bet rifft</w>
ad di
je den
ger eicht</w>
gen berg</w>
netz e</w>
h aufen</w>
fri sch</w>
beschäf tigen</w>
augs burger</w>
pi g
el fen
kla pp
speziali sierte</w>
gouverne urs</w>
anhän gern</w>
be antwor
17 ,
spitz namen</w>
pro be
fri st</w>
altern ativ</w>
nieder gang</w>
zy pern</w>
un bedingt</w>
kti ver</w>
or o</w>
gu es</w>
to w
tig ungen</w>
recht sprechung</w>
g lom
bach tal</w>
ehr e</w>
sta bil
s hor
ausü bung</w>
m oll
ca t</w>
brem sen</w>
an sbach</w>
spie gelt</w>
ver ehrt</w>
mari e-
zu cker</w>
titel s</w>
stei g</w>
sch lam
einhei tliche</w>
canadi an</w>
mana gem
frag mente</w>
ver dient</w>
ent es</w>
par ker</w>
tor schützen
e w</w>
behaup ten</w>
jo ch</w>
jugend licher</w>
wechsel nden</w>
spar te</w>
the ologische</w>
sti ls</w>
bemer kt</w>
op e</w>
verstär kung</w>
tra gene</w>
themati siert</w>
sin o</w>
angewand t</w>
2: 1</w>
stadt ver
erwachsen en
ehemali ges</w>
ver n</w>
tour is
ro tt
qued lin
orts namen</w>
us ch</w>
u pp
o va</w>
o ta
gri d</w>
all tags
x on</w>
ro ut
chor e
lau ter
schei tern</w>
soci al</w>
seh n
ran gen</w>
kai ro</w>
stor f</w>
hil fe
gr ant</w>
z ins
bo s</w>
russi sch-
kan oni
k nie
rech ter
eich stä
die b
an gol
ro ss
gewor denen</w>
risi ko
pho eni
ordent lichen</w>
man hat
kenne dy</w>
wähl er</w>
thi s</w>
f p
ma chter
zurückge kehrt</w>
fein de</w>
con tain
u ti
op ern</w>
befreun det</w>
ver mä
pe op
17 70</w>
he ft</w>
k nei
hil fen</w>
c ut
louisi ana</w>
inde pen
altern ativen</w>
ur ban</w>
stadt -
eisen ach</w>
gesetz en</w>
sk ran
pazifi k</w>
schat ten
ober lauf</w>
jo chen</w>
ab sor
mi l</w>
kongress wahlen</w>
schle chte</w>
ge stü
s z</w>
wur zel</w>
so b
k v</w>
haupt werk</w>
kei l
diskri mini
trock enen</w>
th old</w>
stein bruch</w>
prüf ungen</w>
bel gische</w>
hervor gegangen</w>
verbun dene</w>
mai er</w>
ange legte</w>
besch riebenen</w>
währ end
mi sst</w>
bon a
gewähl te</w>
moder n
flu or
wal m
ge fie
fa i
lu st</w>
ungspoli tik</w>
sul tan
sei den
geb e</w>
bru chs</w>
mar mor</w>
lauf end</w>
lö cher</w>
kompon ente</w>
c is
v y
mech anischen</w>
zi gar
bei behalten</w>
ss an</w>
dor n</w>
ver min
sch i</w>
lie be
ge denken</w>
em ber
um stand</w>
c ze
betrie bene</w>
konstru iert</w>
durch gangs
stein zeit</w>
lat er
fest gehalten</w>
stu art</w>
jeden falls</w>
elektri sch</w>
fol k</w>
regierungs rat</w>
da y
alab ama</w>
’ t</w>
öster reicher</w>
ev ans</w>
thom pson</w>
ke gel
phi l</w>
z hou</w>
an wesend</w>
während dessen</w>
ver wechseln</w>
net work</w>
konzep tion</w>
bewer ber</w>
er lass</w>
w he
kamer aden</w>
a der</w>
pfa d</w>
o y
t schi
schmel z
mu ham
fle ck</w>
sowje tischer</w>
s leben</w>
nor thern</w>
tie fen
lu igi</w>
getauf t</w>
da zwischen</w>
25 .000</w>
hei ß
6 .000</w>
maß geb
bewohn te</w>
signi fi
y on</w>
et er
fre y
di an</w>
thur n</w>
aus s</w>
ber e
administ ration</w>
wohn -</w>
slawi schen</w>
schä del</w>
ger ald</w>
fi tz
ni tz
gra ben
gar i
amts bezirk</w>
en ’s</w>
develop ment</w>
eishocke y</w>
quer schnitt</w>
investi tionen</w>
sch ut
gewer tet</w>
mün chener</w>
ei che</w>
challen ge</w>
ausge stal
stellvertreten de</w>
ri es</w>
flo tti
wahr e</w>
v on-
b y-
on g
z heim</w>
terr ori
j enen</w>
12 .
wilhelm s-universität</w>
sauerst off
organi sche</w>
i x.</w>
ser vi
l on</w>
kreu zt</w>
kompet enz</w>
frei es</w>
wa chs</w>
souver ä
proze ssen</w>
fried hof
chromosom en
aus geb
wen n
regi mes</w>
re ck
i wan</w>
ha r</w>
gesund heitlichen</w>
bo ot
benö tigten</w>
kata stral
zwöl f
n d
e ssen
s win
p he
s cre
i sches</w>
stadt -</w>
le hen
parall elen</w>
erst ä
la gun
herze go
unter haltung</w>
ab a
beschrei bungen</w>
neu ordnung</w>
um land</w>
rund bogen
rad rennfahrer</w>
fahr rad
offizi eller</w>
dal las</w>
sk ör
lö st</w>
bak teri
se x</w>
renom mierten</w>
pioni er</w>
gül tig</w>
her stellen</w>
sti le</w>
tsch er
schä tzen</w>
gläu bigen</w>
klassi ge</w>
ver sai
territ orien</w>
neum ann</w>
verschw and</w>
stattfin denden</w>
kommuni stische</w>
ab u</w>
ha s</w>
spiel ers</w>
liter -
ver ank
t .
ly rik</w>
au t</w>
ve b</w>
her bei
177 2</w>
inten sive</w>
emigri erte</w>
and ro</w>
w dr</w>
nat o</w>
fru cht</w>
französi sch-
bet raut</w>
erweiter n</w>
as i</w>
anzei ge</w>
standar di
schmal spur
bewahr en</w>
bevölkerungs zahl</w>
weit aus</w>
m berg</w>
nach ge
hin -</w>
welt weiten</w>
min en</w>
protokol l</w>
schul z</w>
gemah lin</w>
am pho
bud get</w>
fi re</w>
unterstütz ten</w>
gast stätte</w>
ange gliedert</w>
mensch heit</w>
ka sa
t ann
per s</w>
ma kro
er nest</w>
d na</w>
unter halten</w>
orts kern</w>
jahrhunder t
w unden</w>
konven t</w>
schwarz wald</w>
pe z</w>
lu st
schaf ften</w>
kirchen schiff</w>
ra che</w>
an stren
ok zit
li p
landschafts schutzgebiet</w>
down lo
hie b</w>
ed die</w>
bau -</w>
arabi en</w>
symb ole</w>
nord see</w>
du ell</w>
neg ativen</w>
unter drück
tti ch</w>
schnit ts</w>
pre di
am bro
tur bin
kar ne
wöchent lich</w>
insolven z</w>
ver langte</w>
stu be</w>
begri ffen</w>
vil le-
per sischen</w>
hal be</w>
3 0-
rea giert</w>
bom ber</w>
le g</w>
geschütz ten</w>
schmie de</w>
on ale</w>
gele sen</w>
verzi chten</w>
o sa
anerk annten</w>
fut ter
autor en
bän der</w>
besu cher
national parks</w>
nach einander</w>
mul de</w>
mel den</w>
d ra</w>
wettbewer bs
nieder län
bin de
schleswi g</w>
e ster
klam mern</w>
ent stammt</w>
vertrau t</w>
ha ck
berg land</w>
lingu isti
hanse stadt</w>
t ō
ger man</w>
eth nien</w>
berlin s</w>
p .
co ast</w>
konstru ktionen</w>
mal ta</w>
kriti kern</w>
hand schrift</w>
fun giert</w>
ali stischen</w>
verknüpf t</w>
län gen</w>
groß mutter</w>
organis men</w>
chin as</w>
berei tet</w>
an gere
republi kaner</w>
j h.</w>
blason ierung</w>
tu ber
stern bild</w>
co oper</w>
zwei gen</w>
wid men</w>
hör er</w>
ö ko
produ ktion
ko mit
gen eri
präsen z</w>
kon go</w>
20 ,
stati stischen</w>
mei ß
beglei ter</w>
e ff
experi ment</w>
über arbeitet</w>
u c
ti co</w>
re zi
gir l</w>
gerä umt</w>
bau denkmale</w>
sauerst off</w>
ern er</w>
wieder hergestellt</w>
erkran kte</w>
ge speich
fau st</w>
er we
pi a
publi zi
schein end</w>
kämpf ten</w>
kapitul ation</w>
metho di
kontin ent</w>
hamp ton</w>
ph a</w>
n é</w>
wechsel nd</w>
pri mera</w>
mün den</w>
flücht lings
bro thers</w>
wol fen
kais erin</w>
brookl yn</w>
auf rechter
risi ken</w>
eng länder</w>
sozial er</w>
mete or
moti v
ver ändern</w>
bon ner</w>
rel ation</w>
o .
k k
angekla gt</w>
schsprachi ge</w>
pp e
kl er
getrei de</w>
put sch</w>
konzentrations lager</w>
coun try</w>
yst em</w>
verehr ung</w>
car ter</w>
5 ,5</w>
stell ung
individu ellen</w>
aus schied</w>
177 5</w>
sin gt</w>
p ing</w>
zeich n
lehr ers</w>
massa ker</w>
symptom e</w>
wir ts
ver netz
ry an</w>
ra sen</w>
lanz ett
i c</w>
h p</w>
ab gabe</w>
d ling</w>
ausge liehen</w>
unter haltungs
ke e</w>
ver ton
weltcu p-
ru fe</w>
fü gen</w>
p ten</w>
kreis straße</w>
konkurren z
klar in
verdienst kreuz</w>
so mali
c t
da im
befesti gungs
wun der</w>
ts u
ma zed
steu erte</w>
sk ra
rau pen</w>
sen ats</w>
p d</w>
migu el</w>
en geren</w>
elektroni k</w>
200 .000</w>
lich tenberg</w>
i sten
em er
währ ung</w>
par o
frei gegeben</w>
abend s</w>
bronze zeit</w>
a al</w>
stöß t</w>
kal k</w>
be willi
kosten los</w>
ad ligen</w>
be vor
vermut ung</w>
größ en
pat ent
kongre gation</w>
lan ges</w>
e ds</w>
lang jährige</w>
benutz er</w>
kul t</w>
klassi fiziert</w>
folgen des</w>
berk eley</w>
at a
sä kular
be arbeitet</w>
ökon omi
itali ener</w>
ali e</w>
sto l</w>
er kun
sattel dach</w>
teu fel</w>
sso w</w>
ma sters</w>
bo eing</w>
au stin</w>
kom me</w>
ste phan
fran co</w>
ala ska</w>
wär ter</w>
franzi sk
econ omi
zivil en</w>
menschen rechts
verge ssen</w>
200 4/05</w>
st hal</w>
branden burgischen</w>
kommerzi ellen</w>
c ts</w>
jo b</w>
fel sen
argent inischen</w>
ab ständen</w>
kro atischen</w>
schätz ungen</w>
sa t</w>
p ren
eman uel</w>
wa gn
auf recht</w>
weitest gehend</w>
urhe ber
go od</w>
ch ing</w>
groß herzogtum</w>
zu griff</w>
re t</w>
eishocke y-
versen kt</w>
verfü gten</w>
v ani
zi smus</w>
post -
heraus gabe</w>
anschluss stelle</w>
alumini um
é r
verstän d
bau denkmal</w>
p te</w>
eg g</w>
de portiert</w>
li um</w>
geri chten</w>
ssyst ems</w>
nordafri ka</w>
get rieben</w>
prüf ungs
tri athl
profession ellen</w>
en stein</w>
177 6</w>
land tages</w>
geschmü ckt</w>
dor o
vorarl berg</w>
substan zen</w>
krä u
har ten</w>
se em
r .
pat ro
fern straße</w>
mur ray</w>
is a</w>
germani a</w>
kommunik ation
am ino
gesamt länge</w>
tra m
fest stellen</w>
stre ck
cast el
zagre b</w>
dro ht</w>
val ent
er ledi
gi l</w>
spä terer</w>
obje kten</w>
ur ban
ling hausen</w>
ausbrei tung</w>
moder ierte</w>
sa ssen</w>
s f
fol glich</w>
ni us</w>
jahr taus
hu a</w>
fo to</w>
an geneh
sich ere</w>
wirtschaft licher</w>
a pol
silber ne</w>
pit ts
moderni sierung</w>
pla stik</w>
ho p
aufge griffen</w>
s mar
gi ft</w>
vertra gs</w>
sch ra
di t</w>
um geh
bra h
wahl gang</w>
plan et
mal -
rei ßen</w>
bir min
vor wurf</w>
salv ador</w>
pha sen
gesetz lich</w>
verschie den</w>
ge stein
tha l</w>
schwa chen</w>
mathemati schen</w>
k annte</w>
fehl ende</w>
et hy
col legi
bemü ht</w>
auf einander
initi ierte</w>
österreich- ungarn</w>
wa yne</w>
bremer haven</w>
ye ar</w>
xi ii.</w>
mada ga
com mission</w>
armuts grenze</w>
sekund är
ac tion
an klage</w>
organ ist</w>
forst wirtschaft</w>
österreichi sch-
wen zel</w>
kat ze</w>
my thos</w>
ge te
olo gin</w>
verb or
bri gi
wü sten
winter semester</w>
venezu ela</w>
sta bil</w>
no s</w>
ei te</w>
akade mische</w>
re s
er hoff
steh end</w>
12 8</w>
pf ing
einhei tlichen</w>
lei b</w>
ge bet</w>
weiter bildung</w>
über fall</w>
general stab
ul en</w>
ti ven</w>
un en</w>
ge sti
co l</w>
war tung</w>
mi ra
pi c
hubschrau ber</w>
gesamt fläche</w>
forsch ungsin
den selben</w>
berech tigung</w>
schwan kungen</w>
col om
all a</w>
a chte</w>
ue fa-
schwa ger</w>
heraus zu
glei s
folgen dermaßen</w>
experi mente</w>
178 2</w>
un es
ko m</w>
sno w
orts gemeinde</w>
war ner</w>
exem plar</w>
konkre te</w>
fe ster</w>
er wär
akzep tiert</w>
früher er</w>
an zunehmen</w>
erwer bs
gesch riebene</w>
sexu elle</w>
pa pa
afri kanische</w>
10 4</w>
c ds</w>
2017/ 18</w>
verb ringen</w>
stadt gemeinde</w>
ra ssen</w>
off ener</w>
gna den
ad ler
z an</w>
fä den</w>
sozial demokratischen</w>
gebü hren</w>
2 40</w>
yout u
ver wickelt</w>
se en
boli vien</w>
aus flugs
politi sches</w>
ent fernen</w>
sul z
ki s
1 100</w>
ein gebunden</w>
bin ger</w>
reformi erte</w>
gesetz gebung</w>
er teilte</w>
bl ume</w>
aus nahme
1, 7</w>
unter hielt</w>
re stri
säul en
griechi scher</w>
ge heiratet</w>
eini gt</w>
bob by</w>
le verk
chi a</w>
zun ahme</w>
mit ch
am -
abge trennt</w>
n ell</w>
fach zeitschrift</w>
vereins geschichte</w>
deck el</w>
u- bahn-
ss em
ver samm
pe dal</w>
gedenk stätte</w>
hex en
theore tischen</w>
gan lage</w>
schlu gen</w>
dat o</w>
10 2</w>
rechte ckigen</w>
am moni
pi ano</w>
pfei lern</w>
briti sch-
ti ll
stum m
stadi en</w>
führ end</w>
ent ur
d bar</w>
con c
cle veland</w>
bab yl
son stigen</w>
camp bell</w>
stör t</w>
pi la
militä risch</w>
go vern
sein erseits</w>
fuß e</w>
hoch wasser
gu ss
la den
may r</w>
über setzte</w>
übertra gungs
musikt he
flens burg</w>
durch führen</w>
neben einander</w>
alber to</w>
lö we</w>
vio line</w>
zweit größte</w>
stift ungen</w>
hawa ii</w>
holo cau
verb renn
jün ger</w>
senkre cht</w>
divi sionen</w>
adol ph</w>
wus ste</w>
stu fi
revolution ären</w>
differ enzen</w>
gewä sser
fi t
geschä tz
kompet enzen</w>
gipf el
machter greifung</w>
wes wegen</w>
system atische</w>
prof i</w>
agen ten</w>
verzi cht</w>
ur y</w>
science-fi ction-
nul l
dienst leistungs
massi ve</w>
un bekannte</w>
be achten</w>
arbeit splätze</w>
vermi et
sinf onie</w>
juli an</w>
alt äre</w>
ton nen
her al
wat t</w>
v ai
ungsp un
go og
ex akt</w>
zuver lässi
si erter</w>
haupt darsteller</w>
de zi
gre gori
we d
be warb</w>
glau be</w>
grund stücke</w>
ar o</w>
reichs bahn</w>
gegen seitig</w>
betru gen</w>
vol ker</w>
ver schul
europapo kal</w>
auss er
ter ten</w>
schlo s
rin ger</w>
offen bach</w>
ab schaffung</w>
hei d</w>
untersu chen</w>
ra f</w>
jung frau</w>
bra chen</w>
or egon</w>
mit tig</w>
te ut
dampf er</w>
über winter
läufer in</w>
kor n</w>
hü b
aus wertung</w>
wal la
th es
schul dig</w>
kat zen</w>
unglü ck</w>
b rän
württem ber
sozial es</w>
ingol stadt</w>
hom burg</w>
6 ,5</w>
wei her</w>
verkün dete</w>
schle use</w>
gö te
gestal teten</w>
üb ungen</w>
veränder ten</w>
jen em</w>
ar en
š t
ü ge</w>
fußgän ger
dün n
co w
aa chener</w>
li l
besch werden</w>
verfilm t</w>
s /
glie d</w>
ent fal
si gis
si t</w>
pla y</w>
proze sses</w>
sich eren</w>
sch alten</w>
existi erten</w>
ro me
ober befehlshaber</w>
ho li
u d</w>
mati schen</w>
ki scher</w>
fil me
fri es</w>
sän ger
krie ger</w>
itali a</w>
bundes liga
syn chroni
n .
gesch wä
fur ter</w>
ü .</w>
hypo these</w>
bar on
prop st</w>
1, 1</w>
to bias</w>
gew ehr</w>
ausge geben</w>
ol -
nah verkehr</w>
fort schritt</w>
typi scherweise</w>
verrin gert</w>
r u</w>
w ra
hef tigen</w>
fer tigten</w>
na mes</w>
1 15</w>
durch geführten</w>
w .
geschen k</w>
ver teilen</w>
ver laufende</w>
um stellung</w>
ström ungen</w>
gegenüber liegenden</w>
betra cht</w>
pat er</w>
hal ber</w>
schritt weise</w>
mär kten</w>
expan sion</w>
ca ssi
pan or
sant o</w>
beschrän kte</w>
popul ationen</w>
la ck
weiter s</w>
hel ene</w>
sprinzi p</w>
kampf es</w>
infanterie- regiment</w>
fahr ern</w>
spo sition</w>
pro teste</w>
mat hi
gew onnenen</w>
b k</w>
m t
gen ei
gefü llt</w>
er wor
gi or
leist ung
ch in</w>
ni l
klagen furt</w>
et ti
rein hold</w>
re konstruktion</w>
fäch ern</w>
erober ten</w>
eu x</w>
vene zi
spä tan
si ms</w>
lim burg</w>
genau en</w>
cro ss
riesensl alom</w>
be fahr
gär tner</w>
gemeinsam es</w>
fü gte</w>
gefä ße</w>
w ho</w>
sexu ellen</w>
borde aux</w>
fa una</w>
/0 4</w>
stimm ten</w>
ein d
wider spruch</w>
höl zer
ha ber
man en</w>
geschütz te</w>
rich tigen</w>
mor ris</w>
gouverne ment</w>
aus wei
ab teilungs
rob inson</w>
gil bert</w>
bä r</w>
piet ro</w>
spi tal</w>
zun ge</w>
olo g</w>
ut recht</w>
bre tagne</w>
sur vey</w>
m te</w>
gewähr leistet</w>
ange l</w>
fa ce</w>
ge ziel
birmin gham</w>
pal ast
organi sieren</w>
ni ge</w>
tom my</w>
angeb unden</w>
ver wahr
erwer b
vor be
i tal
el i</w>
unes co-
haupt artikel</w>
vereinbar t</w>
jon as</w>
erstre ckte</w>
berei tung</w>
geheim nis</w>
ka pp
er leben</w>
si o</w>
monat lich</w>
stä mmen</w>
rol ling</w>
vertrei bung</w>
rei senden</w>
maß stab</w>
sch mü
kr onen</w>
dimen sion</w>
po sa
install ation</w>
be zeugt</w>
0- sieg</w>
ver wachsen</w>
p öl
kran ken</w>
umgangs sprachlich</w>
expli zit</w>
wil de</w>
he art</w>
empfeh lung</w>
p ell
blatt sprei
rosen berg</w>
com mer
süd west</w>
ger a</w>
mi le</w>
ja son</w>
gre ss</w>
cht -
177 7</w>
gedenkt afel</w>
cam er
at ed</w>
sol o</w>
or an
erweiter ungen</w>
ampho e</w>
staatso ber
os au
ex ten
empfo hlen</w>
ün de</w>
auf fall
ausgedehn te</w>
lon g
schne e</w>
mol l</w>
interess ant</w>
ron e</w>
176 3</w>
tou lou
beur teilung</w>
alex ander
op fern</w>
gro b</w>
lebens mittel</w>
jesui ten
an gesetzt</w>
sei tlichen</w>
s hu
rebe llen</w>
mark grafen</w>
b auch</w>
lan gem</w>
erre gte</w>
pazi fischen</w>
dida kti
verdien stor
gegeben enfalls</w>
höch st</w>
nahe gelegenen</w>
stron g</w>
b rö
termin al</w>
t ler</w>
kün digung</w>
be frie
austau sch
männ licher</w>
blau -
ž i
pur pur
medi cal</w>
er fordert</w>
19 ,
karri ere
ver sö
ge wirkt</w>
feder ation</w>
bre ms
war schauer</w>
erhe ben</w>
nan cy</w>
sin ter
g u</w>
ein trag</w>
eh in</w>
wehr t</w>
roll er</w>
glie derte</w>
p run
bürgermeister ei</w>
astron omie</w>
über lebte</w>
repor ter</w>
tri lo
sam en
gleich gewicht</w>
mi d</w>
rin a</w>
begei stert</w>
pioni er
b f</w>
herzo gin</w>
tö dlich</w>
s hel
f ab
erlau ben</w>
bi ologischen</w>
b r</w>
è s-
seat tle</w>
um gebenden</w>
erscheinungs bild</w>
einzu setzen</w>
landes kirche</w>
wenn gleich</w>
mc car
the ologen</w>
su spen
religi onen</w>
is o</w>
parlament arischen</w>
gebo gen</w>
bruder schaft</w>
se oul</w>
mask e</w>
ä us
he av
g ung
co ach</w>
über la
op s</w>
assi stan
su ff
li es</w>
kul tus
ai se</w>
burschen schaft</w>
berü hrt</w>
gu atem
mu schel
alb anien</w>
verschie bung</w>
unterneh men
heimat land</w>
umfass end</w>
kie fer
b n</w>
ost küste</w>
fün ft
alf ons</w>
gem alt</w>
bi ber
besatzungs zone</w>
besa gt</w>
verdrän gt</w>
ent würfen</w>
symmet risch</w>
ju pi
erhol ungs
c d
av ant
ig nor
wer tes</w>
ro d
ehren doktor
den nis</w>
apost el</w>
t tung</w>
ra ch</w>
verhaf tung</w>
soziali stische</w>
attent at</w>
an merk
kt ur
de en</w>
kapi tän
de partement</w>
glock enturm</w>
berei tete</w>
ve gas</w>
schi ll
i tz
da i</w>
o vice</w>
auf ständischen</w>
fossi lien</w>
coun t</w>
gan zes</w>
geb rannt</w>
r hi
wasserst off</w>
ohn ehin</w>
i k</w>
gan o</w>
fü hlt</w>
montan a</w>
gro und</w>
geeig nete</w>
ein träge</w>
th u
rich tige</w>
ty pe</w>
süd deutschen</w>
sei l</w>
hei mischen</w>
at tribu
spl an</w>
son stige</w>
mole kular
gruppen phase</w>
par t</w>
ausgeprä gt</w>
pri vati
bro ok</w>
seg ment</w>
pri se</w>
über schwemm
y s
di o
assi st
u- boo
freiwilli ger</w>
be funden</w>
reserv at</w>
make d
ver un
martin -
a ck
land kreise</w>
konkre ten</w>
konf ession</w>
depo t</w>
aus läufer</w>
tri bün
maschinen bau</w>
lie gend</w>
in us</w>
hervor ging</w>
e v</w>
all jährlich</w>
h ün
pi x
ukra in
früh zeitig</w>
ent worfen
da ssel
har old</w>
app le</w>
kalin ingrad</w>
onnen e</w>
tro phy</w>
konzentri eren</w>
e sp
lo bte</w>
ex o
ologi e
ange ordneten</w>
kü chen
ni ck
dutz end</w>
lieuten ant</w>
bi tten</w>
n fl</w>
fein dlichen</w>
secon d</w>
ri ge</w>
me ga
gener als</w>
tor y</w>
mar ía</w>
l kw</w>
aus gehenden</w>
förder er</w>
verzeich nen</w>
ster eo
na se</w>
3 /04</w>
wissen s
erfol gs
er schließung</w>
vor ort</w>
miner alo
ja v
t ums</w>
ran gers</w>
f .
redu zieren</w>
ni ger</w>
kla ve</w>
ern de</w>
bi a
bek rö
app li
kl are</w>
y r</w>
pen sion</w>
unter dessen</w>
ther api
taf el
re solu
f ein</w>
teil stück</w>
lie ben
dreißi g</w>
ein schätzung</w>
cl aus</w>
3 7
ti be
so l</w>
sinn voll</w>
go t</w>
ci us</w>
gu ez</w>
fa y
com e
ober -</w>
ei chen</w>
ren nung</w>
juni oren</w>
tal lin
schweiz erische</w>
wa gens</w>
i ss
tö tet</w>
ei fel</w>
fotografi en</w>
bauf or
m äuse</w>
hir sch</w>
brü chen</w>
quali t
bestä tigung</w>
sta ge</w>
schnitt stelle</w>
schiff fahrts
genaui gkeit</w>
epi de
tä tige</w>
je mals</w>
t ro</w>
lin da</w>
formula_ 6</w>
fal sche</w>
lo st</w>
ökon omischen</w>
no wo
li gam
bi ert</w>
um me</w>
sch ke</w>
profession elle</w>
mari anne</w>
ge sicht
mut maß
hän ge</w>
herr schen</w>
haus halts</w>
ther esi
funktioni ert</w>
n chen</w>
hom a</w>
radik alen</w>
nat o-
institu tion
an del
spe ci
m ungen</w>
f fa
ch ab
am o</w>
o fen</w>
12 .000</w>
zent in</w>
würdi gkeiten</w>
spei se
ost- west-
hau te-
geschäfts führung</w>
ge spren
terra sse</w>
konzi l</w>
chan cen</w>
saar land</w>
komb ini
an gehört</w>
ko di
ja va</w>
mal erin</w>
lan ca
besch lü
wi tz
bra n</w>
p ru
wieder auf
skandina vi
je ff</w>
gül tige</w>
geschle cht
zeit genossen</w>
stu fer</w>
rech ner</w>
physika lischen</w>
lehn s
eh lt</w>
cra ft</w>
lin er</w>
nigeri a</w>
flu t</w>
gör litz</w>
ul t</w>
prot eine</w>
au schwitz</w>
sicht baren</w>
bir d</w>
recht zeitig</w>
op f</w>
mehr zahl</w>
ja y</w>
mä hren</w>
fa ce
eur ovi
ro tem</w>
demon stri
o ce
n ol
geprä gte</w>
de urop
zerem onie</w>
vi k</w>
ja s</w>
ř e
8 .000</w>
de mia</w>
rück runde</w>
indi an</w>
verkehr ten</w>
cat herine</w>
hö r</w>
ch tige</w>
fü ße</w>
emo tion
ro d</w>
rh et
gä u</w>
alexand ria</w>
vi o</w>
sau di-
re vision</w>
hym ne</w>
bow l</w>
0, 3</w>
quadrat kilometern</w>
pp o</w>
nor man</w>
aus führungen</w>
ste am</w>
k k</w>
kl öster
moderni siert</w>
tz ahl</w>
tauf e</w>
l lan
ste ven</w>
lau ten</w>
0, 2</w>
25 -
drän gen</w>
e qui
zwil lings
su dan</w>
neu bauten</w>
le vel</w>
kinder los</w>
schwieri gen</w>
in direkt</w>
wo g</w>
malay sia</w>
u ci</w>
10 3</w>
qu et</w>
margar ete</w>
ati scher</w>
zw ingen</w>
th ing</w>
sor gten</w>
sche u
ku -
histori sches</w>
ver gol
staats straße</w>
voll ständiger</w>
pf t</w>
glei cht</w>
sie bte</w>
orthodo xe</w>
tän z
s na
os wald</w>
g ani
o wski</w>
manhat tan</w>
flo gen</w>
dir k</w>
paläst inen
weiter entwickelt</w>
mexi ko-
championshi ps</w>
[...]
